{
  "version": "1.0",
  "truncation": null,
  "padding": null,
  "added_tokens": [
    {
      "id": 0,
      "content": "<s>",
      "single_word": false,
      "lstrip": false,
      "rstrip": false,
      "normalized": false,
      "special": true
    },
    {
      "id": 1,
      "content": "</s>",
      "single_word": false,
      "lstrip": false,
      "rstrip": false,
      "normalized": false,
      "special": true
    },
    {
      "id": 2,
      "content": "<unk>",
      "single_word": false,
      "lstrip": false,
      "rstrip": false,
      "normalized": false,
      "special": true
    },
    {
      "id": 3,
      "content": "<pad>",
      "single_word": false,
      "lstrip": false,
      "rstrip": false,
      "normalized": false,
      "special": true
    },
    {
      "id": 4,
      "content": "<|user|>",
      "single_word": false,
      "lstrip": false,
      "rstrip": false,
      "normalized": false,
      "special": true
    },
    {
      "id": 5,
      "content": "<|assistant|>",
      "single_word": false,
      "lstrip": false,
      "rstrip": false,
      "normalized": false,
      "special": true
    }
  ],
  "normalizer": null,
  "pre_tokenizer": {
    "type": "ByteLevel",
    "add_prefix_space": false,
    "trim_offsets": true,
    "use_regex": true
  },
  "post_processor": null,
  "decoder": {
    "type": "ByteLevel",
    "add_prefix_space": true,
    "trim_offsets": true,
    "use_regex": true
  },
  "model": {
    "type": "BPE",
    "dropout": null,
    "unk_token": null,
    "continuing_subword_prefix": null,
    "end_of_word_suffix": null,
    "fuse_unk": false,
    "byte_fallback": false,
    "ignore_merges": false,
    "vocab": {
      "<s>": 0,
      "</s>": 1,
      "<unk>": 2,
      "<pad>": 3,
      "<|user|>": 4,
      "<|assistant|>": 5,
      "!": 6,
      "\"": 7,
      "#": 8,
      "$": 9,
      "%": 10,
      "&": 11,
      "'": 12,
      "(": 13,
      ")": 14,
      "*": 15,
      "+": 16,
      ",": 17,
      "-": 18,
      ".": 19,
      "/": 20,
      "0": 21,
      "1": 22,
      "2": 23,
      "3": 24,
      "4": 25,
      "5": 26,
      "6": 27,
      "7": 28,
      "8": 29,
      "9": 30,
      ":": 31,
      ";": 32,
      "<": 33,
      "=": 34,
      ">": 35,
      "?": 36,
      "@": 37,
      "A": 38,
      "B": 39,
      "C": 40,
      "D": 41,
      "E": 42,
      "F": 43,
      "G": 44,
      "H": 45,
      "I": 46,
      "J": 47,
      "K": 48,
      "L": 49,
      "M": 50,
      "N": 51,
      "O": 52,
      "P": 53,
      "Q": 54,
      "R": 55,
      "S": 56,
      "T": 57,
      "U": 58,
      "V": 59,
      "W": 60,
      "X": 61,
      "Y": 62,
      "Z": 63,
      "[": 64,
      "\\": 65,
      "]": 66,
      "^": 67,
      "_": 68,
      "a": 69,
      "b": 70,
      "c": 71,
      "d": 72,
      "e": 73,
      "f": 74,
      "g": 75,
      "h": 76,
      "i": 77,
      "j": 78,
      "k": 79,
      "l": 80,
      "m": 81,
      "n": 82,
      "o": 83,
      "p": 84,
      "q": 85,
      "r": 86,
      "s": 87,
      "t": 88,
      "u": 89,
      "v": 90,
      "w": 91,
      "x": 92,
      "y": 93,
      "z": 94,
      "{": 95,
      "|": 96,
      "}": 97,
      "~": 98,
      "¡": 99,
      "¢": 100,
      "£": 101,
      "¤": 102,
      "¥": 103,
      "§": 104,
      "¨": 105,
      "©": 106,
      "ª": 107,
      "«": 108,
      "¬": 109,
      "®": 110,
      "°": 111,
      "±": 112,
      "²": 113,
      "³": 114,
      "´": 115,
      "µ": 116,
      "¶": 117,
      "·": 118,
      "¸": 119,
      "¹": 120,
      "¼": 121,
      "Â": 122,
      "à": 123,
      "â": 124,
      "ï": 125,
      "Ċ": 126,
      "Ġ": 127,
      "Ģ": 128,
      "ģ": 129,
      "Ĥ": 130,
      "ĥ": 131,
      "Ħ": 132,
      "ħ": 133,
      "Ĩ": 134,
      "ĩ": 135,
      "Ī": 136,
      "ī": 137,
      "Ĭ": 138,
      "ĭ": 139,
      "Į": 140,
      "į": 141,
      "İ": 142,
      "ı": 143,
      "Ĳ": 144,
      "ĳ": 145,
      "Ĵ": 146,
      "ĵ": 147,
      "Ķ": 148,
      "ķ": 149,
      "ĸ": 150,
      "Ĺ": 151,
      "ĺ": 152,
      "Ļ": 153,
      "ļ": 154,
      "Ľ": 155,
      "ľ": 156,
      "Ŀ": 157,
      "ŀ": 158,
      "Ł": 159,
      "ł": 160,
      "Ń": 161,
      "à¸": 162,
      "à¹": 163,
      "à¸²": 164,
      "à¸Ń": 165,
      "à¸²à¸": 166,
      "à¸Ńà¸": 167,
      "à¹ī": 168,
      "à¹Ī": 169,
      "==": 170,
      "à¸£": 171,
      "à¸Ļ": 172,
      "à¸±": 173,
      "à¹Ģ": 174,
      "à¸ļ": 175,
      "à¹Ģà¸": 176,
      "à¸ķ": 177,
      "à¸¥": 178,
      "à¸ģ": 179,
      "à¸µ": 180,
      "Ġà¸": 181,
      "à¸§": 182,
      "à¸´": 183,
      "à¹ģ": 184,
      "à¸ĩ": 185,
      "à¹Ħ": 186,
      "à¸Ĺ": 187,
      "ON": 188,
      "à¸³": 189,
      "à¸¡": 190,
      "à¸Ķ": 191,
      "à¸·": 192,
      "à¸Ħ": 193,
      "à¹ĥ": 194,
      "à¸¢": 195,
      "à¸Ńà¸ĩ": 196,
      "à¸µà¹Ī": 197,
      "on": 198,
      "à¸°": 199,
      "à¸«": 200,
      "à¹Į": 201,
      "à¸ª": 202,
      "TE": 203,
      "===": 204,
      "=====": 205,
      "à¸Ĭ": 206,
      "in": 207,
      "Ġs": 208,
      "à¸²à¸¢": 209,
      "à¸²à¸Ļ": 210,
      "ĠS": 211,
      "à¸Ľ": 212,
      "th": 213,
      "SE": 214,
      "ST": 215,
      "à¸²à¸£": 216,
      "à¸Ńà¸¢": 217,
      "à¹ĥà¸Ĭ": 218,
      "à¹ģà¸¥": 219,
      "or": 220,
      "à¸¹": 221,
      "à¸²à¸ĩ": 222,
      "à¸ģà¸²à¸£": 223,
      "à¸Ńà¸ļ": 224,
      "à¸Ī": 225,
      "de": 226,
      "à¸·à¹Ī": 227,
      "à¹Ĥ": 228,
      "ll": 229,
      "à¹ģà¸¥à¸°": 230,
      "Ġc": 231,
      "OR": 232,
      "ip": 233,
      "à¸£à¸Ńà¸ļ": 234,
      "RE": 235,
      "à¸Ńà¸ĩà¸ģà¸²à¸£": 236,
      "LE": 237,
      "Ġ0": 238,
      "CT": 239,
      "he": 240,
      "à¸¸": 241,
      "à¸Ł": 242,
      "AM": 243,
      "Ġà¹Ģà¸": 244,
      "IN": 245,
      "ATE": 246,
      "RU": 247,
      "XT": 248,
      "CON": 249,
      "CATE": 250,
      "GOR": 251,
      "ION": 252,
      "PON": 253,
      "PLE": 254,
      "SPON": 255,
      "TEXT": 256,
      "ĠSAM": 257,
      "STRU": 258,
      "RESPON": 259,
      "CTION": 260,
      "INSTRU": 261,
      "CONTEXT": 262,
      "CATEGOR": 263,
      "ĠSAMPLE": 264,
      "RESPONSE": 265,
      "INSTRUCTION": 266,
      "CATEGORY": 267,
      "Ġ=====": 268,
      "hell": 269,
      "à¸Łà¸¥": 270,
      "yth": 271,
      "ython": 272,
      "er": 273,
      "à¸²à¸¡": 274,
      "an": 275,
      "ua": 276,
      "à¸²à¸ģ": 277,
      "à¸ĩà¸²à¸Ļ": 278,
      "à¸Ńà¸¡": 279,
      "en": 280,
      "à¸£à¸Ńà¸ļà¸Ĺ": 281,
      "à¸ĸ": 282,
      "à¸«à¸£": 283,
      "re": 284,
      "ti": 285,
      "à¹Ģà¸£": 286,
      "à¸Ħà¸£": 287,
      "à¸ļà¸ļ": 288,
      "ĠP": 289,
      "à¸ŀ": 290,
      "ing": 291,
      "à¹ģà¸ļà¸ļ": 292,
      "à¸§à¸Ńà¸¢": 293,
      "cr": 294,
      "ipt": 295,
      "cript": 296,
      "à¸Ĥ": 297,
      "Ġf": 298,
      "ĠL": 299,
      "Ġp": 300,
      "à¹Ħà¸Ķ": 301,
      "à¸¹à¹ī": 302,
      "Ġà¸£à¸Ńà¸ļà¸Ĺ": 303,
      "à¹Ħà¸Łà¸¥": 304,
      "ĠPython": 305,
      "as": 306,
      "ĠA": 307,
      "à¸ľ": 308,
      "te": 309,
      "Ġà¸ľ": 310,
      "is": 311,
      "Ġscript": 312,
      "à¹ĩ": 313,
      "à¸ļà¸²à¸¢": 314,
      "à¸Ńà¸ĺ": 315,
      "ur": 316,
      "à¹ĥà¸«": 317,
      "al": 318,
      "łà¸²à¸": 319,
      "à¸Ńà¸Ļ": 320,
      "à¸¢à¸Ļ": 321,
      "łà¸²à¸©": 322,
      "ĠLua": 323,
      "à¸§à¸¢": 324,
      "Ġt": 325,
      "Ġà¸Ĺ": 326,
      "à¸Ľà¸ķ": 327,
      "à¸±à¹ī": 328,
      "Ġre": 329,
      "un": 330,
      "à¸´à¹Ī": 331,
      "à¸ģà¸§": 332,
      "Ġà¹ģ": 333,
      "à¸²à¸ķ": 334,
      "à¸łà¸²à¸©": 335,
      "à¸ªà¸³": 336,
      "à¸Ńà¸°": 337,
      "à¹Ģà¸Ľ": 338,
      "à¸Ħà¸³": 339,
      "à¸ĸà¸²à¸¡": 340,
      "Ġl": 341,
      "ĠShell": 342,
      "AN": 343,
      "AS": 344,
      "IST": 345,
      "SIST": 346,
      "USE": 347,
      "à¸¡à¸Ī": 348,
      "ANT": 349,
      "ASSIST": 350,
      "USER": 351,
      "ASSISTANT": 352,
      "ĠAI": 353,
      "à¸Ńà¸ģ": 354,
      "à¸µà¹ī": 355,
      "à¸Ļà¸³": 356,
      "Ġde": 357,
      "Ġà¸«": 358,
      "à¸ªà¸Ħà¸£": 359,
      "tion": 360,
      "Ġà¹Ģà¸Ĥ": 361,
      "il": 362,
      "Ġà¸ķ": 363,
      "Ġin": 364,
      "tur": 365,
      "à¹Ģà¸«": 366,
      "turn": 367,
      "Ġ-": 368,
      "à¹Ħà¸Ľ": 369,
      "Ġshell": 370,
      "ist": 371,
      "à¸Ļà¸Ĺ": 372,
      "à¸£à¸°": 373,
      "à¸Ńà¸£": 374,
      "Ġco": 375,
      "à¸£à¸Ńà¸ĩ": 376,
      "Ġ=": 377,
      "Ġb": 378,
      "Ġà¹Ħà¸Ķ": 379,
      "ite": 380,
      "ul": 381,
      "Ġà¸Ħ": 382,
      "Ġas": 383,
      "à¸ļà¸Ĺ": 384,
      "à¸ļà¸²à¸¢à¸ª": 385,
      "et": 386,
      "à¹Ħà¸£": 387,
      "à¸Īà¸³": 388,
      "à¸Ĺà¸³": 389,
      "à¸ģà¸¥": 390,
      "à¸Ńà¸°à¹Ħà¸£": 391,
      "Ġ(": 392,
      "à¸ļà¹Ģà¸": 393,
      "à¹Ģà¸ŀ": 394,
      "à¹ģà¸ļà¸ļà¸ĩ": 395,
      "Ġà¹Ĥ": 396,
      "à¸Ļà¸°": 397,
      "Ġà¸ŀ": 398,
      "Ġà¸Ńà¸¢": 399,
      "à¸Ńà¸ĩà¸ģà¸²à¸£à¸Ĺà¸³": 400,
      "à¸ªà¸³à¸£à¸Ńà¸ĩ": 401,
      "à¸ĸà¸²à¸¡à¸ģà¸¥": 402,
      "à¸¡à¸Īà¸²à¸ģ": 403,
      "à¸Īà¸³à¹Ģà¸Ľ": 404,
      "à¸Ļà¸°à¸Ļà¸³": 405,
      "Ġà¸Ńà¸¢à¸²à¸ģ": 406,
      "Ġà¸ª": 407,
      "xt": 408,
      "à¸ĺ": 409,
      "à¸¥à¸ĩ": 410,
      "co": 411,
      "Ġa": 412,
      "Ġ1": 413,
      "Ġ|": 414,
      "item": 415,
      "me": 416,
      "à¸ķà¸£": 417,
      "à¸łà¸²à¸©à¸²": 418,
      "à¸²à¸°": 419,
      "à¸Ļà¸": 420,
      "Ġdeb": 421,
      "ror": 422,
      "Ħà¸£": 423,
      "Ġass": 424,
      "à¹Ģà¸«à¸ķ": 425,
      "gg": 426,
      "end": 427,
      "à¹Ģà¸Ħà¸£": 428,
      "Ġà¹Ģà¸Ĭ": 429,
      "gging": 430,
      "fa": 431,
      "Ġà¸ĩ": 432,
      "ath": 433,
      "à¸Ľà¸¥à¸ĩ": 434,
      "ant": 435,
      "à¸Ķà¸¢": 436,
      "à¸Ńà¹Ģà¸": 437,
      "à¸Ļà¸¡": 438,
      "à¸Ńà¸ĩà¸¡": 439,
      "Ġà¸ªà¸³": 440,
      "à¹ĥà¸Ļ": 441,
      "Ġà¸ŀà¸£": 442,
      "es": 443,
      "ugging": 444,
      "Ġdebugging": 445,
      "à¸ķà¹Ĥ": 446,
      "à¸ĩà¸²à¸Ļà¸Ń": 447,
      "istant": 448,
      "Ġassistant": 449,
      "Ġà¸ĩà¸²à¸Ļ": 450,
      "à¸ķà¹Ĥà¸Ļà¸¡": 451,
      "Ġe": 452,
      "Ġn": 453,
      "Ġà¸ªà¸³à¸«à¸£": 454,
      "Ġà¹ģà¸¥à¸°": 455,
      "à¹Ħà¸¡": 456,
      "Ġo": 457,
      "ed": 458,
      "Ġà¸Ĭ": 459,
      "à¸§à¸²à¸¡": 460,
      "unc": 461,
      "lo": 462,
      "ot": 463,
      "Ġm": 464,
      "Ġfor": 465,
      "Ġ\"": 466,
      "à¹Ģà¸Ĥ": 467,
      "Ġreturn": 468,
      "à¸Ħà¸³à¸Ńà¸ĺ": 469,
      "for": 470,
      "le": 471,
      "Ġà¸«à¸£": 472,
      "ar": 473,
      "Ġlo": 474,
      "Ġà¸Ńà¸ĺ": 475,
      "Ġd": 476,
      "error": 477,
      "Ġpip": 478,
      "Ġw": 479,
      "eu": 480,
      "Ġà¸Ĥ": 481,
      "ce": 482,
      "à¹Ģà¸Ķ": 483,
      "code": 484,
      "efa": 485,
      "us": 486,
      "à¸²à¸Ļà¸ĩ": 487,
      "à¸²à¸ĩà¸Ļ": 488,
      "à¸Ńà¸ĩà¸ģà¸²à¸£à¸ķ": 489,
      "Ġpipefa": 490,
      "euo": 491,
      "Ġpipefail": 492,
      "Ġà¸Ļ": 493,
      "Ġà¹ģà¸¥": 494,
      "Ġà¹Ĥà¸Ķà¸¢": 495,
      "Ġà¸Ī": 496,
      "Ġà¹ĥà¸«": 497,
      "à¸ļà¸ľ": 498,
      "à¹Ģà¸¥": 499,
      "à¸³à¸¥": 500,
      "mp": 501,
      "à¹Ĥà¸Łà¸¥": 502,
      "à¹Ģà¸Ķà¸Ńà¸£": 503,
      "à¹Ĥà¸Łà¸¥à¹Ģà¸Ķà¸Ńà¸£": 504,
      "ron": 505,
      "unction": 506,
      "tr": 507,
      "cal": 508,
      "it": 509,
      "à¸¶": 510,
      "à¸«à¸¥": 511,
      "Ġv": 512,
      "Ġcon": 513,
      "up": 514,
      "um": 515,
      "Ġitem": 516,
      "ct": 517,
      "ran": 518,
      "Ġerror": 519,
      "à¹Ħà¸Ĥ": 520,
      "à¸©": 521,
      "à¸Ńà¸Ĺ": 522,
      "Ġ'": 523,
      "à¹ģà¸ģ": 524,
      "Ġfunction": 525,
      "à¸ªà¸³à¸«à¸£": 526,
      "ch": 527,
      "à¸ģà¸©": 528,
      "PI": 529,
      "Ġà¹Ģà¸£": 530,
      "à¸²à¹Ģà¸": 531,
      "à¸²à¹Ģà¸«à¸ķ": 532,
      "ĠAPI": 533,
      "à¸Ńà¸Ńà¸°à¹Ħà¸£": 534,
      "à¸²à¸Ĺ": 535,
      "Ġà¸ĸ": 536,
      "à¸ļà¹Ħà¸Łà¸¥": 537,
      "à¸ĩà¹Ĥà¸Łà¸¥à¹Ģà¸Ķà¸Ńà¸£": 538,
      "inu": 539,
      "Ġà¸ľà¸¡": 540,
      "Ġà¹ģà¸ķ": 541,
      "à¹Ħà¸Ľà¸¢": 542,
      "à¸£à¸°à¸ļ": 543,
      "à¸ģà¸©à¸²à¸": 544,
      "oun": 545,
      "à¸Ļà¸§": 546,
      "à¸²à¸Ħ": 547,
      "à¸ķà¸£à¸ĩ": 548,
      "à¸¥à¸Ńà¸ģ": 549,
      "à¸·à¹ī": 550,
      "à¸ĩà¸²à¸Ļà¸ģ": 551,
      "ame": 552,
      "ro": 553,
      "à¸Ńà¸ª": 554,
      "à¹Ģà¸¢": 555,
      "form": 556,
      "Ġà¸Ĥà¸Ń": 557,
      "ai": 558,
      "à¹Ģà¸ª": 559,
      "à¹Ģà¸ķ": 560,
      "à¸Ķà¸Ħ": 561,
      "à¸²à¸°à¸Ĥ": 562,
      "Ġmul": 563,
      "à¸²à¹Ģà¸Ĺ": 564,
      "Ġà¹ģà¸ļà¸ļà¸ĩ": 565,
      "īà¸ŀ": 566,
      "ļà¸£": 567,
      "à¸£à¸Ļ": 568,
      "à¸Ļà¹ģà¸¥à¸°": 569,
      "à¸Ļà¸Ńà¸Ĺ": 570,
      "à¸Ļà¸²à¹Ģà¸Ĺ": 571,
      "à¸ļà¸łà¸²à¸©à¸²": 572,
      "à¹Ģà¸ĩ": 573,
      "à¸¥à¸Īà¸³à¹Ģà¸Ľ": 574,
      "à¸ģà¸Ļ": 575,
      "à¹ģà¸Ļà¸°à¸Ļà¸³": 576,
      "à¹ģà¸Ľà¸¥à¸ĩ": 577,
      "à¹Ħà¸§": 578,
      "à¸¡à¸Ń": 579,
      "à¸Ķà¸§": 580,
      "à¸Ķà¸¥à¸Ńà¸ģ": 581,
      "à¸Ńà¸ĩà¸ļà¸Ĺ": 582,
      "à¸°à¹Ģà¸£": 583,
      "à¸ªà¸Ļà¸Ĺ": 584,
      "à¸²à¸¢à¸ģ": 585,
      "à¸²à¸¢à¸£à¸Ńà¸ļ": 586,
      "à¸Ńà¸¢à¸ĸà¸²à¸¡à¸ģà¸¥": 587,
      "à¸²à¸ĩà¸ķ": 588,
      "à¸²à¸ĩà¹Ģà¸¥": 589,
      "à¸²à¸ĩà¸«à¸¥": 590,
      "à¸ģà¸²à¸£à¸£": 591,
      "à¹ģà¸¥à¸°à¸ĸà¸²à¸¡à¸ģà¸¥": 592,
      "Ġcron": 593,
      "à¸Ńà¸ĩà¸ģà¸²à¸£à¹ĥà¸Ĭ": 594,
      "à¸Ńà¸ĩà¸ģà¸²à¸£à¹Ģà¸Ĥ": 595,
      "à¸ĩà¸²à¸Ļà¸Ĺ": 596,
      "à¸Ńà¸¡à¸ķ": 597,
      "ĠLinu": 598,
      "Ġà¸ľà¸¡à¸Ī": 599,
      "à¸Ńà¸Ļà¹Ħà¸Ĥ": 600,
      "à¸Ńà¸Ļà¸ģà¸²à¸£à¸£": 601,
      "à¸¢à¸Ļà¸ªà¸Ħà¸£": 602,
      "à¸§à¸¢à¸£à¸°à¸ļ": 603,
      "Ġà¹ģà¸Ļà¸°à¸Ļà¸³": 604,
      "à¸Ńà¸°à¸«à¸£": 605,
      "à¸Ħà¸³à¸ĸà¸²à¸¡": 606,
      "à¸ļà¸Ĺà¹ģà¸¥à¸°à¸ĸà¸²à¸¡à¸ģà¸¥": 607,
      "à¸ļà¹Ģà¸Ĺ": 608,
      "à¸ļà¹Ģà¸īà¸ŀ": 609,
      "à¸Ńà¸ĩà¸ģà¸²à¸£à¸Ĺà¸³à¸Ħ": 610,
      "à¸Ńà¸ĩà¸ģà¸²à¸£à¸Ĺà¸³à¸ĩà¸²à¸Ļà¸ģ": 611,
      "à¸ªà¸³à¸£à¸Ńà¸ĩà¹Ħà¸Łà¸¥": 612,
      "à¸¡à¸Īà¸²à¸ģà¸Ħà¸³à¸ĸà¸²à¸¡": 613,
      "Ġà¸Ńà¸¢à¸²à¸ģà¹Ħà¸Ķ": 614,
      "Ġà¸Ńà¸¢à¸²à¸ģà¸ªà¸³à¸£à¸Ńà¸ĩà¹Ħà¸Łà¸¥": 615,
      "à¸Ńà¹Ģà¸Ĭ": 616,
      "à¹ĥà¸Ļà¹Ģà¸Ħà¸£": 617,
      "Ġà¹ģà¸¥à¸°à¸ĩà¸²à¸Ļà¸Ĺ": 618,
      "Ġà¹Ĥà¸Ķà¸¢à¹ĥà¸«": 619,
      "Ġà¸Īà¸³à¸¥": 620,
      "Ġà¸ľà¸¡à¹ģà¸Ļà¸°à¸Ļà¸³": 621,
      "à¸ģà¸©à¸²à¸ļà¸£": 622,
      "à¸Ńà¸ªà¸Ńà¸Ļà¸ģà¸²à¸£à¸£": 623,
      "à¹Ģà¸¢à¸Ńà¸°à¸«à¸£": 624,
      "Ġà¸Ĥà¸Ńà¹ģà¸ļà¸ļà¸ĩ": 625,
      "à¹Ģà¸ªà¸Ļà¸Ńà¸Ĺ": 626,
      "Ġmulti": 627,
      "à¸Ļà¹ģà¸¥à¸°à¹Ģà¸ªà¸Ļà¸Ńà¸Ĺ": 628,
      "à¸Ļà¸²à¹Ģà¸Ĺà¸£à¸Ļ": 629,
      "à¸ļà¸łà¸²à¸©à¸²à¸Ńà¸°à¹Ħà¸£": 630,
      "à¸Ķà¸¥à¸Ńà¸ģà¹Ħà¸Łà¸¥": 631,
      "à¸Ńà¸ĩà¸ļà¸Ĺà¸ªà¸Ļà¸Ĺ": 632,
      "à¸²à¸¢à¸£à¸Ńà¸ļà¹Ģà¸ŀ": 633,
      "à¸²à¸ĩà¸«à¸¥à¸²à¸¢à¸£à¸Ńà¸ļà¹Ģà¸ŀ": 634,
      "ĠLinux": 635,
      "Ġà¸ľà¸¡à¸Īà¸°à¹Ģà¸£": 636,
      "à¸Ńà¸Ļà¹Ħà¸Ĥà¹Ģà¸¢à¸Ńà¸°à¸«à¸£": 637,
      "à¸ļà¹Ģà¸īà¸ŀà¸²à¸°à¸Ĥ": 638,
      "à¸¡à¸Īà¸²à¸ģà¸Ħà¸³à¸ĸà¸²à¸¡à¸ģà¸§": 639,
      "Ġà¸Īà¸³à¸¥à¸Ńà¸ĩà¸ļà¸Ĺà¸ªà¸Ļà¸Ĺ": 640,
      "à¸Ļà¹ģà¸¥à¸°à¹Ģà¸ªà¸Ļà¸Ńà¸Ĺà¸²à¸ĩà¹Ģà¸¥": 641,
      "Ġà¸Īà¸³à¸¥à¸Ńà¸ĩà¸ļà¸Ĺà¸ªà¸Ļà¸Ĺà¸Ļà¸²à¹Ģà¸Ĺà¸£à¸Ļ": 642,
      "à¸«à¸¡": 643,
      "at": 644,
      "Ġset": 645,
      "and": 646,
      "Ĳà¸²à¸Ļ": 647,
      "à¸§à¸Ī": 648,
      "ent": 649,
      "à¸Ļà¸Ĳà¸²à¸Ļ": 650,
      "otal": 651,
      "à¹Ĥà¸Ħ": 652,
      "ult": 653,
      "ac": 654,
      "')": 655,
      "txt": 656,
      "à¸ķà¸Ńà¸ļ": 657,
      "):": 658,
      "ort": 659,
      "ding": 660,
      "Ġ2": 661,
      "text": 662,
      "ge": 663,
      "Ġth": 664,
      "Ġbas": 665,
      "py": 666,
      "à¸¥à¸¥": 667,
      "à¸ģà¸£à¸°": 668,
      "à¸ŀà¸ĺ": 669,
      "Ġtran": 670,
      "Ġtrans": 671,
      "Ġà¹Ģà¸ŀ": 672,
      "ang": 673,
      "à¹Į:": 674,
      "def": 675,
      "Ġtransform": 676,
      "**": 677,
      "īà¸ļ": 678,
      "à¸Ńà¸Ńà¸ĺ": 679,
      "à¸§à¹Ģà¸ķ": 680,
      "à¸Ķà¸«à¸£": 681,
      "à¹ģà¸¥à¸°à¸§": 682,
      "Ġ01": 683,
      "Ġ02": 684,
      "Ġ03": 685,
      "Ġ04": 686,
      "Ġ05": 687,
      "à¸Ńà¸¡à¸ŀ": 688,
      "à¹ģà¸ļà¸ļà¸ģà¸£à¸°": 689,
      "à¸ľà¸¥à¸¥": 690,
      "à¸ļà¸²à¸¢à¸łà¸²à¸©": 691,
      "Ġtotal": 692,
      "à¸ļà¸²à¸¢à¸ªà¸²à¹Ģà¸«à¸ķ": 693,
      "à¸Ļà¸īà¸ļ": 694,
      "Ġà¸ĩà¸²à¸Ļà¹ģà¸Ľà¸¥à¸ĩ": 695,
      "à¸²à¸Ħà¸Ńà¸¡à¸ŀ": 696,
      "à¸«à¸¡à¸²à¸¢": 697,
      "Ġbash": 698,
      "à¸§à¹Ģà¸ķà¸Ńà¸£": 699,
      "à¹ģà¸ļà¸ļà¸ģà¸£à¸°à¸Ĭ": 700,
      "à¸ļà¸²à¸¢à¸łà¸²à¸©à¸²à¸Ħà¸Ńà¸¡à¸ŀ": 701,
      "Ġà¸ĩà¸²à¸Ļà¹ģà¸Ľà¸¥à¸ĩà¹Ĥà¸Ħ": 702,
      "Ġ00": 703,
      "à¸²à¸Ķ": 704,
      "Ġ+": 705,
      "à¸Ļà¸ª": 706,
      "Ġà¹ĥà¸Ĭ": 707,
      "à¸Ķà¸ķ": 708,
      "à¹Ģà¸Ļ": 709,
      "à¸ĩà¸¡": 710,
      "Ġ06": 711,
      "imp": 712,
      "à¹Ħà¸Ľà¸ķ": 713,
      "ack": 714,
      "ab": 715,
      "di": 716,
      "mb": 717,
      "à¸¢à¸ļ": 718,
      "ther": 719,
      "env": 720,
      "Ġpython": 721,
      "Ġà¹ģà¸Ľà¸¥à¸ĩ": 722,
      "import": 723,
      "à¸¥à¸²à¸Ķ": 724,
      "Ġà¹Ĥà¸Ħ": 725,
      "Ġdo": 726,
      "Ġ8": 727,
      "à¸¡à¸§": 728,
      "à¸¡à¸²à¸°": 729,
      "à¸¢à¸ģ": 730,
      "à¹Ģà¸«à¸¡à¸²à¸°": 731,
      "()": 732,
      "ation": 733,
      "à¸Ńà¸Ĭ": 734,
      "à¹ģà¸Ļà¸§": 735,
      "à¸Ķà¸ŀ": 736,
      "à¸Ńà¹Ģà¸ª": 737,
      "à¸§à¸²à¸¡à¸ľ": 738,
      "angua": 739,
      "à¹Ģà¸«à¸¡à¸²à¸°à¸ģ": 740,
      "à¸Ķà¸ŀà¸¥à¸²à¸Ķ": 741,
      "à¸±à¹Ī": 742,
      "ded": 743,
      "ackup": 744,
      "our": 745,
      "..": 746,
      "ers": 747,
      "Ġother": 748,
      "ges": 749,
      "anguages": 750,
      "!/": 751,
      "#!/": 752,
      "-\\": 753,
      "ay": 754,
      "bin": 755,
      "game": 756,
      "languages": 757,
      "path": 758,
      "script": 759,
      "set": 760,
      "}-\\": 761,
      "à¸ı": 762,
      "à¸²à¹ģà¸¥à¸°": 763,
      "à¸Ńà¹Ħà¸Ķ": 764,
      "à¸Ńà¸Ńà¸ģ": 765,
      "à¸£à¸ĩà¸¡": 766,
      "à¸ļà¸ĩà¸²à¸Ļ": 767,
      "à¸ļà¸ĩà¸²à¸Ļà¸Ń": 768,
      "à¸ķà¸¥": 769,
      "à¸¥à¸Ķà¸Ħ": 770,
      "à¸§à¸£": 771,
      "à¹Ħà¸ķà¸¥": 772,
      "à¸¡à¸ªà¸³à¸«à¸£": 773,
      "à¸Ķà¸Ĥ": 774,
      "à¸Ķà¸łà¸²à¸©à¸²": 775,
      "à¸²à¸¢à¹ģà¸¥à¸°": 776,
      "à¸Ľà¸ı": 777,
      "à¹ģà¸¥à¸°à¹Ģà¸Ħà¸£": 778,
      "à¸Ńà¸ĩà¸ģà¸²à¸£à¸ªà¸Ħà¸£": 779,
      "à¸¸:": 780,
      "à¸ĩà¸²à¸Ļà¸ķà¸£à¸ĩ": 781,
      "à¸Ńà¸¡à¹ģà¸Ļà¸§": 782,
      "à¹ģà¸ļà¸ļà¹ĥà¸«": 783,
      "Ġscripting": 784,
      "à¸§à¸¢à¸¥à¸Ķà¸Ħ": 785,
      "Ġlua": 786,
      "à¸Ļà¸³à¹Ħà¸Ľ": 787,
      "Ġà¸«à¸¡à¸§": 788,
      "Ġcoding": 789,
      "Ġemb": 790,
      "edded": 791,
      "usr": 792,
      "à¸«à¸¡à¸²à¸¢à¹Ģà¸«à¸ķ": 793,
      "à¸Ļà¸ªà¹Ħà¸ķà¸¥": 794,
      "à¹Ħà¸Ľà¸ķà¸£à¸ĩà¸¡": 795,
      "à¸¢à¸ļà¸ĩ": 796,
      "à¸Ńà¹Ģà¸ªà¸£": 797,
      "à¸Ķà¸ŀà¸¥à¸²à¸Ķà¸ŀ": 798,
      "ource": 799,
      "à¸²à¹ģà¸¥à¸°à¸Ń": 800,
      "à¸Ńà¸Ńà¸ģà¹ģà¸ļà¸ļà¹ĥà¸«": 801,
      "à¸Ķà¸łà¸²à¸©à¸²à¹ģà¸¥à¸°à¹Ģà¸Ħà¸£": 802,
      "à¸²à¸¢à¹ģà¸¥à¸°à¸Ļà¸³à¹Ħà¸Ľ": 803,
      "à¸ĩà¸²à¸Ļà¸ķà¸£à¸ĩà¹Ħà¸Ľà¸ķà¸£à¸ĩà¸¡": 804,
      "à¸Ńà¸¡à¹ģà¸Ļà¸§à¸Ľà¸ı": 805,
      "à¸§à¸¢à¸¥à¸Ķà¸Ħà¸§à¸²à¸¡à¸ľ": 806,
      "Ġà¸«à¸¡à¸§à¸Ķà¸łà¸²à¸©à¸²à¹ģà¸¥à¸°à¹Ģà¸Ħà¸£": 807,
      "Ġembedded": 808,
      "à¸²à¸¢à¹ģà¸¥à¸°à¸Ļà¸³à¹Ħà¸Ľà¹ĥà¸Ĭ": 809,
      "à¸ĩà¸²à¸Ļà¸ķà¸£à¸ĩà¹Ħà¸Ľà¸ķà¸£à¸ĩà¸¡à¸²à¹ģà¸¥à¸°à¸Ń": 810,
      "if": 811,
      "pe": 812,
      "Ġend": 813,
      "Ġ3": 814,
      "rs": 815,
      "gex": 816,
      "int": 817,
      "Ġsum": 818,
      "à¸Ľà¸£": 819,
      "à¸ķà¸£à¸§à¸Ī": 820,
      "Ġlocal": 821,
      "able": 822,
      "ad": 823,
      "ke": 824,
      "ĠT": 825,
      "Ġres": 826,
      "ut": 827,
      "Ġ5": 828,
      "ile": 829,
      "--": 830,
      "QL": 831,
      "à¹Ħà¸Ĺ": 832,
      "à¹Ħà¸Ĺà¸¢": 833,
      "Ġ7": 834,
      "sh": 835,
      "Ġ4": 836,
      "à¸«à¸Ļ": 837,
      "Ġstr": 838,
      "Ġpath": 839,
      "pp": 840,
      "ound": 841,
      "à¸Ńà¸Ħ": 842,
      "Ġà¸Ħà¸§à¸£": 843,
      "DE": 844,
      "all": 845,
      "mm": 846,
      "Ġg": 847,
      "à¸ģà¸³": 848,
      "à¸Ńà¸Ħà¸§à¸²à¸¡": 849,
      "('": 850,
      "ue": 851,
      "Ġ6": 852,
      "local": 853,
      "Ġis": 854,
      "08": 855,
      "Python": 856,
      "YY": 857,
      "source": 858,
      "à¸§à¹ģ": 859,
      "à¸²à¸£à¸²à¸ĩ": 860,
      "à¸Ħà¸³à¸ª": 861,
      "Ġcopy": 862,
      "à¸ģà¸³à¸«à¸Ļ": 863,
      "à¸§à¹ģà¸Ľà¸£": 864,
      "à¹Ģà¸ģ": 865,
      "à¸ĩà¸ģ": 866,
      "Ġto": 867,
      "Ġwor": 868,
      "00": 869,
      "Ġand": 870,
      "à¸¹à¹Ī": 871,
      "Ġà¹Ģà¸Ľ": 872,
      "Ġdi": 873,
      "Ġitems": 874,
      "rom": 875,
      "el": 876,
      "ype": 877,
      "Ġor": 878,
      "one": 879,
      "items": 880,
      "Ġnil": 881,
      "cho": 882,
      "key": 883,
      "Ġresult": 884,
      "Ġun": 885,
      "airs": 886,
      "se": 887,
      "vers": 888,
      "ĠB": 889,
      "Ġch": 890,
      "##": 891,
      "ate": 892,
      "bl": 893,
      "Ġâ": 894,
      "à¸Īà¸²à¸ģ": 895,
      "der": 896,
      "qu": 897,
      "à¸ķà¸²à¸£à¸²à¸ĩ": 898,
      "Ġcomm": 899,
      "Er": 900,
      "Ġà¸łà¸²à¸©": 901,
      "à¸²à¸£à¸ķà¸Ńà¸ļ": 902,
      "à¹Ĥà¸ķ": 903,
      "à¸²à¸ģà¸²à¸£à¸ķà¸Ńà¸ļ": 904,
      "log": 905,
      "Ġconvers": 906,
      "Ġthe": 907,
      "à¸²à¸ģà¸²à¸£à¸ķà¸Ńà¸ļà¹Ĥà¸ķ": 908,
      "ig": 909,
      "ĠF": 910,
      "à¸²à¹Ħà¸Ĺà¸¢": 911,
      "à¸¥à¸łà¸²à¸©": 912,
      "Ġpr": 913,
      "à¸ķà¸Ńà¸ļà¹ģà¸ļà¸ļ": 914,
      "Ġà¸łà¸²à¸©à¸²à¹Ħà¸Ĺà¸¢": 915,
      "Ġconversation": 916,
      "à¸¥à¸łà¸²à¸©à¸²à¸ģà¸²à¸£à¸ķà¸Ńà¸ļà¹Ĥà¸ķ": 917,
      "à¸ģà¸ķ": 918,
      "à¸ĩà¹Ħà¸¡": 919,
      "à¹Ĥà¸Ķà¸¢": 920,
      "ERE": 921,
      "HERE": 922,
      "WHERE": 923,
      "li": 924,
      "}$": 925,
      "à¸ĩà¸ª": 926,
      "LECT": 927,
      "Ġecho": 928,
      "Ġ\"$": 929,
      "Ġlog": 930,
      "ĠBY": 931,
      "Error": 932,
      "Ġprint": 933,
      "ep": 934,
      "ĠSQL": 935,
      "from": 936,
      "Ġy": 937,
      "Ġint": 938,
      "Ġop": 939,
      "',": 940,
      "RO": 941,
      "ment": 942,
      "Ġ_": 943,
      "Ġimport": 944,
      "ĢĶ": 945,
      "Ġbackup": 946,
      "od": 947,
      "uti": 948,
      "Ġà¹ģà¸ļà¸ļ": 949,
      "Ġwi": 950,
      "ĠâĢĶ": 951,
      "Re": 952,
      "app": 953,
      "si": 954,
      "ĠI": 955,
      "Ġif": 956,
      "hai": 957,
      "op": 958,
      "ou": 959,
      "Ġ[": 960,
      "à¸§à¸¡": 961,
      "...": 962,
      "ELECT": 963,
      "Lua": 964,
      "^\\": 965,
      "backup": 966,
      "mer": 967,
      "num": 968,
      "tbl": 969,
      "Ġ.": 970,
      "ĠC": 971,
      "Ġx": 972,
      "Ġ{": 973,
      "ĠOR": 974,
      "ĠWHERE": 975,
      "Ġ^\\": 976,
      "à¸Ńà¸²à¸": 977,
      "à¸Ńà¹Ħà¸¡": 978,
      "à¸£à¸§à¸Ī": 979,
      "ĠSELECT": 980,
      "Ġà¸ķà¸£à¸§à¸Ī": 981,
      "Ġcol": 982,
      "fault": 983,
      "Ġà¸Ħà¸§à¸£à¸ķà¸£à¸§à¸Ī": 984,
      "DER": 985,
      "à¸ģà¸³à¸«à¸Ļà¸Ķà¸Ħ": 986,
      "à¸§à¹ģà¸Ľà¸£à¸Ĺ": 987,
      "util": 988,
      "Ġwith": 989,
      "ĠORDER": 990,
      "ol": 991,
      "son": 992,
      "à¸ļà¸£": 993,
      "ok": 994,
      "st": 995,
      "Ġ/": 996,
      "Ġà¸Ń": 997,
      "Ġti": 998,
      "à¹Ģà¸¡": 999,
      ":-": 1000,
      "av": 1001,
      "ĠJ": 1002,
      "Ġip": 1003,
      "Ġ**": 1004,
      "à¸Ħà¸§à¸²à¸¡": 1005,
      "à¸Īà¸£": 1006,
      "ĠPath": 1007,
      "à¸Ĥà¸Ńà¸ĩ": 1008,
      "Ġregex": 1009,
      "copy": 1010,
      "dir": 1011,
      "---": 1012,
      "Ġword": 1013,
      "ROM": 1014,
      "Ġipairs": 1015,
      "ec": 1016,
      "ter": 1017,
      "à¸ĵ": 1018,
      "ind": 1019,
      "Ġtext": 1020,
      "Ġcle": 1021,
      "list": 1022,
      "Ġà¸§": 1023,
      "Ġà¹ģà¸ģ": 1024,
      "*.": 1025,
      "='": 1026,
      "ice": 1027,
      "json": 1028,
      "ly": 1029,
      "las": 1030,
      "lay": 1031,
      "mal": 1032,
      "sv": 1033,
      "Ġ==": 1034,
      "Ġen": 1035,
      "Ġkey": 1036,
      "ORT": 1037,
      "res": 1038,
      "à¸¢à¸Ļà¸Ł": 1039,
      "ari": 1040,
      "à¹Ģà¸¥à¸Ĥ": 1041,
      "Ġ20": 1042,
      "080": 1043,
      "Ġdict": 1044,
      "nums": 1045,
      "lass": 1046,
      "am": 1047,
      "str": 1048,
      "ĠE": 1049,
      "ĠN": 1050,
      "Ġr": 1051,
      "Ġse": 1052,
      "mis": 1053,
      "Ġh": 1054,
      "à¸į": 1055,
      "à¸ĩà¸Ħ": 1056,
      "à¸¡à¸ķ": 1057,
      "à¸ªà¸²à¹Ģà¸«à¸ķ": 1058,
      "Ġlist": 1059,
      "Ġnot": 1060,
      "Ġvari": 1061,
      "sion": 1062,
      "à¸Ńà¸²à¸Ī": 1063,
      "26": 1064,
      "alue": 1065,
      "Ġ10": 1066,
      "Ġcommand": 1067,
      "Ġyou": 1068,
      "ection": 1069,
      "${": 1070,
      "id": 1071,
      "kdir": 1072,
      "mkdir": 1073,
      "Ġme": 1074,
      "Ġà¹Ħà¸¡": 1075,
      "à¸Ńà¹Ħà¸Łà¸¥": 1076,
      "à¸£à¸§à¸¡": 1077,
      "à¸ĩà¸¥": 1078,
      "à¸³à¸Ķ": 1079,
      "à¸¡à¸²à¸ģ": 1080,
      "ine": 1081,
      "ast": 1082,
      "Ġtable": 1083,
      "Ġtype": 1084,
      "Ġà¸Ĥà¸Ńà¸ĩ": 1085,
      "mpt": 1086,
      "Ġpathli": 1087,
      "à¸Ńà¸Ħà¸§à¸²à¸¡à¸Ĺ": 1088,
      "Ġ_,": 1089,
      "Ġvariable": 1090,
      "Ġpathlib": 1091,
      "03": 1092,
      "bj": 1093,
      "Ġà¸ģ": 1094,
      "à¸£à¸¡": 1095,
      "ase": 1096,
      "Ġar": 1097,
      "ĠThai": 1098,
      "OP": 1099,
      "ect": 1100,
      "to": 1101,
      "ted": 1102,
      "Ġlast": 1103,
      "Ġat": 1104,
      "SQL": 1105,
      "file": 1106,
      "Ġk": 1107,
      "Ġà¸ļ": 1108,
      "Ġà¹Ħà¸Ľ": 1109,
      "Ġus": 1110,
      "ĠDE": 1111,
      "à¸²à¹Ģà¸£": 1112,
      "à¸²à¹Ħà¸Ľ": 1113,
      "à¸ģà¹Ģà¸ģ": 1114,
      "à¸ĩà¹Ģà¸Ĥ": 1115,
      "ert": 1116,
      "rect": 1117,
      "Ġà¹ģà¸¥à¸°à¸ª": 1118,
      "Ġof": 1119,
      "low": 1120,
      "Ġcont": 1121,
      "Ġthen": 1122,
      "à¸¢à¸ģà¸ķ": 1123,
      "à¸¢à¸ģà¸ľ": 1124,
      "à¸įà¸«": 1125,
      ");": 1126,
      "PORT": 1127,
      "Za": 1128,
      "]+": 1129,
      "]]": 1130,
      "csv": 1131,
      "fi": 1132,
      "king": 1133,
      "rite": 1134,
      "Ġ*.": 1135,
      "à¸§à¹Ģà¸¥à¸Ĥ": 1136,
      "à¸ĩà¸Ļ": 1137,
      "Ġsh": 1138,
      "à¸²à¸Ļà¹Ħà¸Łà¸¥": 1139,
      "aned": 1140,
      "Ġretr": 1141,
      "Ġread": 1142,
      "Ġdeep": 1143,
      "Ġdelay": 1144,
      "Ġà¸«à¸²": 1145,
      "coding": 1146,
      "à¹ĥà¸Ļà¸ķà¸²à¸£à¸²à¸ĩ": 1147,
      "Ġne": 1148,
      "Ġver": 1149,
      "dict": 1150,
      "Ġ8080": 1151,
      "utf": 1152,
      "Ġlogs": 1153,
      "Ġopen": 1154,
      "Ġà¸ķà¸£à¸§à¸Īà¸§": 1155,
      "Ġcleaned": 1156,
      "Ġencoding": 1157,
      "Ġseen": 1158,
      "Ġclass": 1159,
      "tic": 1160,
      "Ġbran": 1161,
      "Ġobj": 1162,
      "ated": 1163,
      "Ġbranch": 1164,
      "ex": 1165,
      "name": 1166,
      "out": 1167,
      "rent": 1168,
      "rue": 1169,
      "Ġ9": 1170,
      "à¸Ńà¹Ģà¸Ľ": 1171,
      "à¸Ļà¸ģ": 1172,
      "Ġà¸Ķ": 1173,
      "Ġfi": 1174,
      "Ġper": 1175,
      "lose": 1176,
      "qui": 1177,
      "Not": 1178,
      "gl": 1179,
      "ied": 1180,
      "sup": 1181,
      "Ġà¸¥": 1182,
      "Ġ...": 1183,
      "à¹Ĩ": 1184,
      "à¸ĩà¸Ĺ": 1185,
      "à¸ĩà¹Ģà¸£": 1186,
      "à¸Ľà¹ģà¸ļà¸ļ": 1187,
      "ory": 1188,
      "ders": 1189,
      "default": 1190,
      "Ġcur": 1191,
      "erv": 1192,
      "ish": 1193,
      "Ġapp": 1194,
      "Ġ11": 1195,
      "à¸łà¸²à¸©à¸²à¹Ħà¸Ĺà¸¢": 1196,
      "Ġvalue": 1197,
      "dition": 1198,
      "Ġdirect": 1199,
      "eld": 1200,
      "Ġunb": 1201,
      "Regex": 1202,
      "Ġ2026": 1203,
      "Ġfield": 1204,
      "Ġcurrent": 1205,
      "),": 1206,
      "DD": 1207,
      "Found": 1208,
      "MM": 1209,
      "NAM": 1210,
      "Path": 1211,
      "SC": 1212,
      "Shell": 1213,
      "True": 1214,
      "mod": 1215,
      "nied": 1216,
      "ow": 1217,
      "por": 1218,
      "ve": 1219,
      "ver": 1220,
      "}.": 1221,
      "ĠYY": 1222,
      "Ġ${": 1223,
      "Ġà¸£à¸§à¸¡": 1224,
      "à¸Ńà¹Ģà¸£": 1225,
      "à¸Ńà¹Ħà¸Ľ": 1226,
      "à¸²à¸ĸ": 1227,
      "à¸Ńà¸¥": 1228,
      "à¸Ļà¹Ħà¸Ķ": 1229,
      "à¸Ļà¸Ħà¸³à¸Ńà¸ĺ": 1230,
      "à¸ļà¸§": 1231,
      "à¸ļà¸Ķ": 1232,
      "à¸¥à¹ĥà¸«": 1233,
      "à¸ģà¸ģ": 1234,
      "à¸ģà¸£à¸Ńà¸ĩ": 1235,
      "à¸ģà¸ģà¸³à¸«à¸Ļ": 1236,
      "à¸§à¹Ģà¸£": 1237,
      "à¸´à¹Į": 1238,
      "à¸ĩà¸ŀ": 1239,
      "à¸ĩà¸Ļà¸³": 1240,
      "à¸Ĺà¸ĺ": 1241,
      "à¸¡à¸Ļ": 1242,
      "à¸¡à¸Ĺ": 1243,
      "à¸Ķà¸ģ": 1244,
      "à¸Ķà¸Īà¸²à¸ģ": 1245,
      "à¸Ķà¹Ģà¸¡": 1246,
      "à¸¢à¸²à¸¢": 1247,
      "à¸¢à¸ĩà¸¥": 1248,
      "à¸Ńà¸ĩà¸«à¸£": 1249,
      "à¸Ĭà¸Ļ": 1250,
      "Ġst": 1251,
      "Ġsource": 1252,
      "à¸²à¸£à¸ĸ": 1253,
      "ore": 1254,
      "dex": 1255,
      "Ġcp": 1256,
      "Ġcre": 1257,
      "à¸Ńà¸ĩà¸ģà¸²à¸£à¸Īà¸²à¸ģ": 1258,
      "erand": 1259,
      "à¸²à¸¡à¹Ģà¸Ĥ": 1260,
      "à¸²à¸¡à¸ļà¸£": 1261,
      "à¸²à¸¡à¸²à¸£à¸ĸ": 1262,
      "regex": 1263,
      "Ġfile": 1264,
      "Ġpar": 1265,
      "tempt": 1266,
      "à¸ļà¸²à¸¢à¸łà¸²à¸©à¸²à¹Ħà¸Ĺà¸¢": 1267,
      "à¸Ńà¸Ļà¹ĥà¸Ĭ": 1268,
      "à¸Ńà¸ģà¸³à¸¥": 1269,
      "Ġdenied": 1270,
      "Ġà¸ķà¸²à¸¡à¸ļà¸£": 1271,
      "Ġindex": 1272,
      "Ġloop": 1273,
      "Ġà¹Ĥà¸Ķà¸¢à¸ķà¸£à¸ĩ": 1274,
      "Ġcondition": 1275,
      "à¸ķà¸£à¸ĩà¸ģ": 1276,
      "à¹ģà¸Ľà¸¥à¸ĩà¸Ĭà¸Ļ": 1277,
      "à¸Ļà¸Ĳà¸²à¸Ļà¹Ģà¸Ľ": 1278,
      "').": 1279,
      "à¸«à¸¡à¸²à¸¢à¸ĸ": 1280,
      "Ġ+:": 1281,
      "Ġ+=": 1282,
      "à¸ķà¸£à¸§à¸Īà¸Ĥ": 1283,
      "ĠType": 1284,
      "ileNot": 1285,
      "shutil": 1286,
      "Ġà¸Ħà¸§à¸£à¹ģà¸Ľà¸¥à¸ĩà¸Ĭà¸Ļ": 1287,
      "à¸§à¹ģà¸Ľà¸£à¸ĸ": 1288,
      "Ġworking": 1289,
      "Ġunsup": 1290,
      "Ġchmod": 1291,
      "ĠFROM": 1292,
      "ĠFileNot": 1293,
      "à¹Ĥà¸Ķà¸¢à¸ģà¸³à¸«à¸Ļà¸Ķà¸Ħ": 1294,
      "à¸ĩà¸ªà¸ķà¸£": 1295,
      "Ġoperand": 1296,
      "Ġà¹ģà¸ļà¸ļà¹Ģà¸ķ": 1297,
      "Ġà¸Ħà¸§à¸£à¸ķà¸£à¸§à¸Īà¸§": 1298,
      "mission": 1299,
      "à¸ĩà¸Ħà¸Ńà¸¥": 1300,
      "à¸Ńà¸²à¸Īà¸¢": 1301,
      "Ġà¸Ĥà¸Ńà¸ĩà¸ķ": 1302,
      "Ġattempt": 1303,
      "Ġà¹Ħà¸Ľà¸ļà¸§": 1304,
      "ĠDESC": 1305,
      "Ġà¹ģà¸¥à¸°à¸ªà¸²à¸¡à¸²à¸£à¸ĸ": 1306,
      "à¸įà¸«à¸²": 1307,
      "Ġshutil": 1308,
      "exist": 1309,
      "Ġpermission": 1310,
      "glish": 1311,
      "Ġdirectory": 1312,
      "Ġunbound": 1313,
      "FoundError": 1314,
      "NAME": 1315,
      "ported": 1316,
      "ĠYYYY": 1317,
      "Ġà¸£à¸§à¸¡à¸Ĺ": 1318,
      "à¸Ńà¹Ħà¸Ľà¸Ļ": 1319,
      "à¸ģà¸£à¸Ńà¸ĩà¸Ķ": 1320,
      "à¸ģà¸ģà¸³à¸«à¸Ļà¸Ķà¸ģ": 1321,
      "à¸ĩà¸ŀà¸¢à¸²à¸¢": 1322,
      "à¸¢à¸ĩà¸¥à¸³à¸Ķ": 1323,
      "Ġcreated": 1324,
      "à¸Ńà¸ĩà¸ģà¸²à¸£à¸Īà¸²à¸ģà¸ķà¸²à¸£à¸²à¸ĩ": 1325,
      "ĠTypeError": 1326,
      "Ġunsupported": 1327,
      "ĠFileNotFoundError": 1328,
      "Ġà¹Ħà¸Ľà¸ļà¸§à¸ģà¸ģ": 1329,
      "Ġà¹ģà¸¥à¸°à¸ªà¸²à¸¡à¸²à¸£à¸ĸà¸ģà¸£à¸Ńà¸ĩà¸Ķ": 1330,
      "à¸ĩà¸ŀà¸¢à¸²à¸¢à¸²à¸¡à¹Ģà¸Ĥ": 1331,
      "io": 1332,
      "nglish": 1333,
      "oc": 1334,
      "pl": 1335,
      "rit": 1336,
      "|---": 1337,
      "à¸²à¸§": 1338,
      "à¸Ļà¸Ĥ": 1339,
      "ence": 1340,
      "Ġrequi": 1341,
      "Ġdefault": 1342,
      "Ġ100": 1343,
      "à¸¶à¹ī": 1344,
      "Ġstring": 1345,
      "ques": 1346,
      "ervice": 1347,
      "10": 1348,
      "gi": 1349,
      "line": 1350,
      "Ġon": 1351,
      "à¸ģà¸Ħ": 1352,
      "à¸Ľà¸£à¸°": 1353,
      "à¸£à¸°à¸ļà¸ļ": 1354,
      "ark": 1355,
      "###": 1356,
      "older": 1357,
      "Ġtime": 1358,
      "ĠEnglish": 1359,
      "Ġobject": 1360,
      "Ġrequire": 1361,
      ").": 1362,
      "12": 1363,
      "Script": 1364,
      "Ti": 1365,
      "ait": 1366,
      "aScript": 1367,
      "gn": 1368,
      "ies": 1369,
      "ĠD": 1370,
      "ĠG": 1371,
      "Ġit": 1372,
      "à¸ĭ": 1373,
      "à¸£à¸Ĺ": 1374,
      "à¸ļà¸Ħ": 1375,
      "à¸ªà¸Ńà¸ļ": 1376,
      "ual": 1377,
      "Ġpairs": 1378,
      "à¸Īà¸³à¸Ļà¸§": 1379,
      "Ġaw": 1380,
      "cep": 1381,
      "formal": 1382,
      "ata": 1383,
      "à¸ļà¸£à¸£à¸Ĺ": 1384,
      "avaScript": 1385,
      "ĠJavaScript": 1386,
      "lower": 1387,
      "Ġcontent": 1388,
      "Time": 1389,
      "\"$": 1390,
      "))": 1391,
      "-]+": 1392,
      "=\"$": 1393,
      "COP": 1394,
      "FROM": 1395,
      "SON": 1396,
      "UM": 1397,
      "UP": 1398,
      "base": 1399,
      "cm": 1400,
      "close": 1401,
      "done": 1402,
      "folder": 1403,
      "gs": 1404,
      "gz": 1405,
      "ic": 1406,
      "ounc": 1407,
      "ray": 1408,
      "tar": 1409,
      "total": 1410,
      "table": 1411,
      "write": 1412,
      "xcep": 1413,
      "Ġ<": 1414,
      "Ġ>": 1415,
      "Ġjson": 1416,
      "Ġ]]": 1417,
      "à¸ļà¸Īà¸³à¸Ļà¸§": 1418,
      "à¸ģà¸Ĥ": 1419,
      "à¸§à¸Ļ": 1420,
      "à¸§à¸Ħ": 1421,
      "à¸ĩà¸ĭ": 1422,
      "à¸¡à¸ŀ": 1423,
      "ĠSUM": 1424,
      "orig": 1425,
      "à¹Ĥà¸Ľà¸£": 1426,
      "llection": 1427,
      "Ġcus": 1428,
      "tign": 1429,
      "Ġfet": 1430,
      "url": 1431,
      "alind": 1432,
      "Ġtxt": 1433,
      "Ġtmp": 1434,
      "Ġrebase": 1435,
      "Ġcollection": 1436,
      "Ġ=>": 1437,
      "à¸¥à¸ĩà¹Ħà¸Łà¸¥": 1438,
      "Ġdebounc": 1439,
      "Ġassert": 1440,
      "args": 1441,
      "Ġload": 1442,
      "ronoun": 1443,
      "Ġ''": 1444,
      "à¹ģà¸ģà¸£à¸¡": 1445,
      "ount": 1446,
      "ounter": 1447,
      "rome": 1448,
      "'))": 1449,
      "**:": 1450,
      "à¸ķà¸£à¸§à¸Īà¸ªà¸Ńà¸ļ": 1451,
      "à¸Ńà¸Ħà¸§à¸²à¸¡à¸¥à¸ĩà¹Ħà¸Łà¸¥": 1452,
      "else": 1453,
      "Ġorders": 1454,
      "ments": 1455,
      "append": 1456,
      "open": 1457,
      "Ġ[[": 1458,
      "Ġ{}": 1459,
      "stall": 1460,
      "Ġtimer": 1461,
      "ĠJSON": 1462,
      "result": 1463,
      "amount": 1464,
      "Ġarray": 1465,
      "tomer": 1466,
      "Ġretry": 1467,
      "Ġdeepcopy": 1468,
      "Ġnew": 1469,
      "Ġverb": 1470,
      "plit": 1471,
      "Ġdefaultdict": 1472,
      "Ġ10000": 1473,
      "gitign": 1474,
      "Ġrequirements": 1475,
      "Ġawait": 1476,
      "Timeout": 1477,
      "COPY": 1478,
      "cmd": 1479,
      "à¹Ĥà¸Ľà¸£à¹ģà¸ģà¸£à¸¡": 1480,
      "Ġcustomer": 1481,
      "Ġfetch": 1482,
      "alindrome": 1483,
      "Ġcollections": 1484,
      "Ġdebounce": 1485,
      "gitignore": 1486,
      "not": 1487,
      "ra": 1488,
      "ry": 1489,
      "ten": 1490,
      "à¹ĥà¸Ī": 1491,
      "à¸«à¸§": 1492,
      "thod": 1493,
      "ord": 1494,
      "asual": 1495,
      "à¸ļà¸²à¸¢à¸Ħà¸§à¸²à¸¡": 1496,
      "Ġbe": 1497,
      "Ġcontext": 1498,
      "ave": 1499,
      "Ġwords": 1500,
      "Ġmethod": 1501,
      "55": 1502,
      "Thai": 1503,
      "ker": 1504,
      "mo": 1505,
      "à¸²à¹Ħà¸¡": 1506,
      "ending": 1507,
      "Ġmark": 1508,
      "Ġused": 1509,
      "no": 1510,
      "put": 1511,
      "ĠH": 1512,
      "Ġà¹ĥà¸Ļ": 1513,
      "à¸Ńà¹ĥà¸Ĭ": 1514,
      "à¸Ķà¹Ħà¸¡": 1515,
      "à¸Ħà¸§à¸£": 1516,
      "à¸ģà¸²à¸£à¹Ģà¸£": 1517,
      "unt": 1518,
      "Ġà¸«à¸¥": 1519,
      "Ġinput": 1520,
      "Ġbu": 1521,
      "à¹ĥà¸Ļà¸£à¸°à¸ļà¸ļ": 1522,
      "Ġformal": 1523,
      "ary": 1524,
      "Ġwhe": 1525,
      "à¸Ķà¸ķà¸²à¸¡": 1526,
      "().": 1527,
      "Ġgo": 1528,
      "Ġgen": 1529,
      "Ġgit": 1530,
      "igh": 1531,
      "Ġà¹ģà¸ļà¸ļà¸ª": 1532,
      "olite": 1533,
      "à¸¡à¸²à¸ģà¸ģà¸§": 1534,
      "|---|---": 1535,
      "age": 1536,
      "iz": 1537,
      "les": 1538,
      "pending": 1539,
      "word": 1540,
      "à¸Ńà¸«": 1541,
      "à¸Ļà¸Ļ": 1542,
      "à¸ķà¸Ńà¸Ļ": 1543,
      "à¸§à¸Ĥ": 1544,
      "à¸Ĺà¸£": 1545,
      "à¸Īà¸°": 1546,
      "Ġpronoun": 1547,
      "Ġà¸«à¸Ļ": 1548,
      "Ġby": 1549,
      "Ġare": 1550,
      "Ġ12": 1551,
      "Ġeat": 1552,
      "Ġname": 1553,
      "Ġmo": 1554,
      "row": 1555,
      "ifi": 1556,
      "ally": 1557,
      "Ġhas": 1558,
      "Ġpartic": 1559,
      "?\"": 1560,
      "fer": 1561,
      "sing": 1562,
      "ĠM": 1563,
      "Ġan": 1564,
      "à¸²à¹ĥà¸Ī": 1565,
      "à¸ģà¸£": 1566,
      "ong": 1567,
      "Ġso": 1568,
      "à¸¸à¹Ī": 1569,
      "Ġà¸Ħà¸£": 1570,
      "Ġ13": 1571,
      "Ġ14": 1572,
      "Ġ15": 1573,
      "Ġ16": 1574,
      "Ġ17": 1575,
      "Ġ18": 1576,
      "Ġ19": 1577,
      "à¸²à¸°à¸«": 1578,
      "à¹Ģà¸Ħà¸£à¸²à¸°à¸«": 1579,
      "Ġwh": 1580,
      "Ġwrit": 1581,
      "ity": 1582,
      "words": 1583,
      "'t": 1584,
      "56": 1585,
      "OOP": 1586,
      "ap": 1587,
      "by": 1588,
      "cur": 1589,
      "gist": 1590,
      "ha": 1591,
      "jection": 1592,
      "ull": 1593,
      "¤à¸ķ": 1594,
      "ĠY": 1595,
      "à¸¤à¸ķ": 1596,
      "à¸Ńà¹ģà¸ģ": 1597,
      "à¸Ńà¸Ńà¸²à¸": 1598,
      "à¸Ļà¹ĥà¸Ĭ": 1599,
      "à¸Ļà¹Ģà¸£": 1600,
      "à¸Ļà¸ķà¸Ńà¸Ļ": 1601,
      "à¸¥à¸Ĺ": 1602,
      "Ġà¸Ł": 1603,
      "à¸ĩà¸Ĥ": 1604,
      "à¸ĩà¸ķà¸£à¸§à¸Īà¸ªà¸Ńà¸ļ": 1605,
      "à¸ªà¸Ńà¸Ļ": 1606,
      "Ġsent": 1607,
      "Ġspe": 1608,
      "Ġservice": 1609,
      "à¸²à¸£à¸Ĺ": 1610,
      "à¸²à¸£à¸¢": 1611,
      "à¸²à¸ĩà¸£à¸°": 1612,
      "Ġcasual": 1613,
      "REST": 1614,
      "à¸ĩà¸²à¸Ļà¸Īà¸£": 1615,
      "à¸ŀà¸¤à¸ķ": 1616,
      "Ġpolite": 1617,
      "Ġtup": 1618,
      "Ġlen": 1619,
      "Ġlet": 1620,
      "à¸Ńà¸ģà¸²à¸£à¸Ĺ": 1621,
      "ild": 1622,
      "Ġinjection": 1623,
      "Ġcount": 1624,
      "Ġel": 1625,
      "Ġnum": 1626,
      "fore": 1627,
      "lete": 1628,
      "leep": 1629,
      "à¹Ħà¸Ĥà¸Ħ": 1630,
      "atus": 1631,
      "ache": 1632,
      "Ġ013": 1633,
      "Ġ014": 1634,
      "Ġ016": 1635,
      "Ġ017": 1636,
      "Ġ018": 1637,
      "Ġ019": 1638,
      "Ġ023": 1639,
      "Ġ024": 1640,
      "Ġ026": 1641,
      "Ġ027": 1642,
      "Ġ028": 1643,
      "Ġ029": 1644,
      "Ġ033": 1645,
      "Ġ034": 1646,
      "Ġ036": 1647,
      "Ġ037": 1648,
      "Ġ038": 1649,
      "Ġ039": 1650,
      "Ġ043": 1651,
      "Ġ044": 1652,
      "Ġ046": 1653,
      "Ġ047": 1654,
      "Ġ048": 1655,
      "Ġ049": 1656,
      "Ġ053": 1657,
      "Ġ054": 1658,
      "Ġ056": 1659,
      "Ġ057": 1660,
      "Ġ058": 1661,
      "Ġ059": 1662,
      "Ġ003": 1663,
      "Ġ004": 1664,
      "Ġ006": 1665,
      "Ġ007": 1666,
      "Ġ008": 1667,
      "Ġ009": 1668,
      "Ġ063": 1669,
      "Ġ064": 1670,
      "Ġ066": 1671,
      "Ġ067": 1672,
      "Ġ068": 1673,
      "à¸ķà¸Ńà¸ļà¹ģà¸ļà¸ļà¸¡": 1674,
      "à¸ķà¸Ńà¸ļà¹ģà¸ļà¸ļà¸ª": 1675,
      "à¸ķà¸Ńà¸ļà¹ģà¸ļà¸ļà¹Ģà¸Ľ": 1676,
      "à¸ķà¸Ńà¸ļà¹ģà¸ļà¸ļà¹Ģà¸Ļ": 1677,
      "à¸ķà¸Ńà¸ļà¹ģà¸ļà¸ļà¸Ńà¸²à¸Ī": 1678,
      "à¸Ĥà¸Ńà¸ĩà¸Ľ": 1679,
      "Ġclear": 1680,
      "Ġra": 1681,
      "question": 1682,
      "à¸ļà¸²à¸¢à¸Ħà¸§à¸²à¸¡à¸ķ": 1683,
      "à¸ģà¸£à¸£à¸¡": 1684,
      "cursion": 1685,
      "à¸Ńà¸Ńà¸²à¸Ĭ": 1686,
      "à¸²à¸ĩà¸£à¸°à¸«à¸§": 1687,
      "Ġtuple": 1688,
      "à¸ķà¸Ńà¸ļà¹ģà¸ļà¸ļà¸Ńà¸²à¸Īà¸²à¸£à¸¢": 1689,
      "11": 1690,
      "13": 1691,
      "14": 1692,
      "15": 1693,
      "16": 1694,
      "17": 1695,
      "18": 1696,
      "19": 1697,
      "20": 1698,
      "23": 1699,
      "SV": 1700,
      "ail": 1701,
      "ader": 1702,
      "ces": 1703,
      "fig": 1704,
      "git": 1705,
      "ial": 1706,
      "ict": 1707,
      "om": 1708,
      "service": 1709,
      "sleep": 1710,
      "you": 1711,
      "Ġup": 1712,
      "à¸²à¸Ī": 1713,
      "à¸²à¸Ĭ": 1714,
      "à¸¥à¸ķ": 1715,
      "à¸¥à¸°": 1716,
      "à¸ĩà¸«à¸¡": 1717,
      "à¹Ħà¸«à¸¡": 1718,
      "à¸³à¹Ģà¸Ľ": 1719,
      "ins": 1720,
      "SET": 1721,
      "AML": 1722,
      "ING": 1723,
      "rep": 1724,
      "read": 1725,
      "time": 1726,
      "Ġfrom": 1727,
      "Ġfind": 1728,
      "Ġpro": 1729,
      "asy": 1730,
      "ise": 1731,
      "à¹ĥà¸«à¸¡": 1732,
      "Ġtone": 1733,
      "roup": 1734,
      "aid": 1735,
      "add": 1736,
      "Ġgroup": 1737,
      "ĠâĨ": 1738,
      "male": 1739,
      "owel": 1740,
      "ocker": 1741,
      "quest": 1742,
      "ĠDocker": 1743,
      "ĠGit": 1744,
      "ĠYAML": 1745,
      "à¸ĩà¸«à¸¡à¸Ķ": 1746,
      "ĠDockerfile": 1747,
      "\",": 1748,
      "\"]": 1749,
      "%+": 1750,
      "([": 1751,
      "(()": 1752,
      "(...": 1753,
      ")')": 1754,
      ",}$": 1755,
      ",]+": 1756,
      ".[": 1757,
      "._": 1758,
      ".-]+": 1759,
      "21": 1760,
      "22": 1761,
      "24": 1762,
      "25": 1763,
      "54": 1764,
      "8080": 1765,
      "::-": 1766,
      "=${": 1767,
      ">&": 1768,
      "@[": 1769,
      "AV": 1770,
      "CM": 1771,
      "Counter": 1772,
      "DI": 1773,
      "DATE": 1774,
      "Data": 1775,
      "Dict": 1776,
      "FS": 1777,
      "GRO": 1778,
      "HAV": 1779,
      "KDI": 1780,
      "LL": 1781,
      "ULL": 1782,
      "WOR": 1783,
      "[::-": 1784,
      "\\.[": 1785,
      "]{": 1786,
      "^[": 1787,
      "^,]+": 1788,
      "ati": 1789,
      "cp": 1790,
      "cz": 1791,
      "call": 1792,
      "cache": 1793,
      "day": 1794,
      "date": 1795,
      "data": 1796,
      "echo": 1797,
      "empt": 1798,
      "fn": 1799,
      "fre": 1800,
      "func": 1801,
      "function": 1802,
      "found": 1803,
      "find": 1804,
      "gm": 1805,
      "glo": 1806,
      "grep": 1807,
      "his": 1808,
      "hile": 1809,
      "iq": 1810,
      "iron": 1811,
      "jo": 1812,
      "mtime": 1813,
      "nc": 1814,
      "null": 1815,
      "ost": 1816,
      "python": 1817,
      "pay": 1818,
      "palindrome": 1819,
      "ri": 1820,
      "rglo": 1821,
      "ste": 1822,
      "sort": 1823,
      "sli": 1824,
      "split": 1825,
      "type": 1826,
      "ug": 1827,
      "ure": 1828,
      "value": 1829,
      "wc": 1830,
      "while": 1831,
      "xa": 1832,
      "};": 1833,
      "}\\": 1834,
      "~=": 1835,
      "¥à¸³à¸Ķ": 1836,
      "ĠW": 1837,
      "Ġà¹Ħà¸Łà¸¥": 1838,
      "Ġran": 1839,
      "Ġà¹Ħà¸Ľà¸¢": 1840,
      "Ġà¹Ħà¸Ľà¸ķ": 1841,
      "Ġenv": 1842,
      "ĠError": 1843,
      "Ġà¸ģà¸²à¸£à¹Ģà¸£": 1844,
      "Ġquestion": 1845,
      "Ġ};": 1846,
      "Ġ~=": 1847,
      "īà¸¥": 1848,
      "Ķà¸ª": 1849,
      "ľà¸¥": 1850,
      "łà¸Ĺ": 1851,
      "à¸²à¹Ħà¸Łà¸¥": 1852,
      "à¸Ńà¹ĥà¸«": 1853,
      "à¸Ńà¹Ĥà¸Łà¸¥à¹Ģà¸Ķà¸Ńà¸£": 1854,
      "à¸²à¸ĭ": 1855,
      "à¸²à¸ľà¸¥": 1856,
      "à¸Ńà¸Ķà¸ª": 1857,
      "à¸£à¸²à¸¢": 1858,
      "à¸Ļà¸Ń": 1859,
      "à¸Ļà¸¥": 1860,
      "à¸Ļà¹ģà¸¥": 1861,
      "à¸Ļà¹ĥà¸Ļ": 1862,
      "à¸Ļà¸ļà¸£à¸£à¸Ĺ": 1863,
      "à¸ļà¸Ń": 1864,
      "à¸ļà¸Ħà¸§à¸²à¸¡": 1865,
      "à¹Ģà¸łà¸Ĺ": 1866,
      "à¸¥à¹ģà¸ļà¸ļ": 1867,
      "à¸ģà¹Ħà¸Łà¸¥": 1868,
      "à¸ģà¹ĥà¸Ļà¸ķà¸²à¸£à¸²à¸ĩ": 1869,
      "Ġà¸ī": 1870,
      "à¸§à¸Ħà¸£": 1871,
      "à¸§à¸ŀ": 1872,
      "à¹ģà¸Ĭ": 1873,
      "à¸ĩà¸§": 1874,
      "à¸ĩà¹Ħà¸Łà¸¥": 1875,
      "à¸ĩà¹Ģà¸¡": 1876,
      "à¸³à¹ĥà¸Ļ": 1877,
      "à¸¡à¸Ĥ": 1878,
      "à¸¡à¸²à¸Ĭ": 1879,
      "à¸Ķà¸ģà¸¥": 1880,
      "à¸Ķà¹Ĥà¸Łà¸¥à¹Ģà¸Ķà¸Ńà¸£": 1881,
      "à¹ĥà¸Ķà¹Ħà¸¡": 1882,
      "à¸¢à¸ĩ": 1883,
      "à¸¢à¸Ĥà¸Ńà¸ĩ": 1884,
      "à¸¢à¸Ńà¸Ķà¸ª": 1885,
      "à¸Ńà¸ĩà¸Ĺ": 1886,
      "à¸Ńà¸ĩà¸£à¸°": 1887,
      "à¸°à¸Ħà¸³à¸ª": 1888,
      "install": 1889,
      "Ġsplit": 1890,
      "Ġsave": 1891,
      "à¸²à¸¢à¸Ĭ": 1892,
      "à¸²à¸¢à¹Ĩ": 1893,
      "à¸²à¸Ļà¸°à¸Ħà¸³à¸ª": 1894,
      "à¸Ľà¹Ħà¸Łà¸¥": 1895,
      "SELECT": 1896,
      "à¸Ńà¸¢à¹Ħà¸Ľ": 1897,
      "order": 1898,
      "ormal": 1899,
      "à¸²à¸ĩà¸«à¸£": 1900,
      "à¸²à¸ĩà¸Ľà¸£à¸°": 1901,
      "à¸ģà¸²à¸£à¸ķ": 1902,
      "à¸Ńà¸ļà¸Ļà¸Ĳà¸²à¸Ļ": 1903,
      "dev": 1904,
      "delay": 1905,
      "delete": 1906,
      "Ġcsv": 1907,
      "RUN": 1908,
      "à¸²à¸ģà¸§": 1909,
      "à¸²à¸ģà¸ķà¸²à¸£à¸²à¸ĩ": 1910,
      "à¸ĸà¸²à¸Ļà¸°à¸Ħà¸³à¸ª": 1911,
      "retr": 1912,
      "request": 1913,
      "tifa": 1914,
      "timer": 1915,
      "à¸ļà¸ļà¸²à¸ĩà¸Ľà¸£à¸°": 1916,
      "ĠPORT": 1917,
      "Ġfn": 1918,
      "Ġfunc": 1919,
      "Ġfound": 1920,
      "Ġfail": 1921,
      "Ġph": 1922,
      "Ġport": 1923,
      "Ġpalindrome": 1924,
      "Ġpaid": 1925,
      "ĠAS": 1926,
      "isal": 1927,
      "à¸ļà¸²à¸¢à¸Ħà¸³à¸ª": 1928,
      "à¸§à¸¢à¸ķ": 1929,
      "Ġtar": 1930,
      "Ġtbl": 1931,
      "Ġtry": 1932,
      "Ġà¸Ĺà¸³": 1933,
      "Ġà¹ģà¸¢à¸ģ": 1934,
      "à¸Ħà¸³à¹ĥà¸Ļ": 1935,
      "Ġline": 1936,
      "Ġdemo": 1937,
      "Ġà¸«à¸²à¸Ħ": 1938,
      "Ġà¸«à¸²à¸ľà¸¥": 1939,
      "Ġà¸ķà¸²à¸£à¸²à¸ĩ": 1940,
      "Ġinformal": 1941,
      "Ġinstall": 1942,
      "Ġ--": 1943,
      "à¸Ńà¸£à¸§à¸¡": 1944,
      "à¸£à¸Ńà¸ĩà¹Ħà¸Łà¸¥": 1945,
      "Ġbut": 1946,
      "uld": 1947,
      "Ġ(!": 1948,
      "Ġ(...": 1949,
      "à¸ļà¹Ģà¸Ķ": 1950,
      "Ġà¸ŀà¸Ńà¸£": 1951,
      "Ġà¸ªà¸ĸà¸²à¸Ļà¸°à¸Ħà¸³à¸ª": 1952,
      "Ġab": 1953,
      "Ġam": 1954,
      "Ġaver": 1955,
      "Ġ||": 1956,
      "ends": 1957,
      "Ġà¸ªà¸³à¸£à¸Ńà¸ĩà¹Ħà¸Łà¸¥": 1958,
      "à¹ĥà¸Ļà¹Ĥà¸Łà¸¥à¹Ģà¸Ķà¸Ńà¸£": 1959,
      "ess": 1960,
      "Ġexcep": 1961,
      "Ġno": 1962,
      "Ġà¹ģà¸¥à¸°à¸Ħà¸§à¸²à¸¡": 1963,
      "load": 1964,
      "Ġdif": 1965,
      "Ġwrite": 1966,
      "Ġà¹Ĥà¸Ķà¸¢à¸£": 1967,
      "Ġà¸Īà¸²à¸ģ": 1968,
      "Ġconst": 1969,
      "Ġconfig": 1970,
      "Ġ'([": 1971,
      "à¸²à¹Ģà¸īà¸¥": 1972,
      "inue": 1973,
      "à¸ģà¸©à¸²à¸¥à¸³à¸Ķ": 1974,
      "à¸²à¸Ħà¸³à¹Ģà¸Ľ": 1975,
      "atch": 1976,
      "ĠsetTimeout": 1977,
      "');": 1978,
      "')]": 1979,
      "Ġthis": 1980,
      "Ġthrow": 1981,
      "à¸Ļà¸ªà¸¡à¸²à¸Ĭ": 1982,
      "à¸¢à¸ļà¸Ĥ": 1983,
      "à¸¢à¸ģà¸Ł": 1984,
      "())": 1985,
      "();": 1986,
      "à¸Ķà¸Ĥà¸Ńà¸ĩà¸Ĺ": 1987,
      "keep": 1988,
      "à¸Ńà¸Ħà¸§à¸²à¸¡à¸Ķ": 1989,
      "('*": 1990,
      "('*.": 1991,
      "Ġuniq": 1992,
      "à¸Īà¸²à¸ģà¸Ļ": 1993,
      "Ġcomma": 1994,
      "Ġcommit": 1995,
      "logs": 1996,
      "Reader": 1997,
      "ĠIS": 1998,
      "ĠIFS": 1999,
      "Ġ[\"": 2000,
      "Ġ[]": 2001,
      "ĠCo": 2002,
      "ĠCounter": 2003,
      "ĠCSV": 2004,
      "Ġà¸ķà¸£à¸§à¸Īà¸Ń": 2005,
      "Ġà¸ķà¸£à¸§à¸Īà¸Ħà¸³à¸ª": 2006,
      "à¹Ģà¸¡à¸¥à¹ģà¸ļà¸ļ": 2007,
      "à¸Ĥà¸Ńà¸ĩà¸ķ": 2008,
      "Ġà¸§à¸Ļà¸¥": 2009,
      "='',": 2010,
      "ĠExcep": 2011,
      "ĠNone": 2012,
      "ĠNULL": 2013,
      "missing": 2014,
      "Ġhost": 2015,
      "Ġmean": 2016,
      "à¸£à¸§à¸¡à¸Ĥà¸Ńà¸ĩà¸ķ": 2017,
      "Ġartifa": 2018,
      "Ġcontinue": 2019,
      "]].": 2020,
      "à¸§à¹Ģà¸¥à¸Ĥà¹ĥà¸Ļà¸ķà¸²à¸£à¸²à¸ĩ": 2021,
      "à¸§à¹Ģà¸¥à¸Ĥà¸Īà¸²à¸ģà¸Ļ": 2022,
      "Ġretries": 2023,
      "Ġà¸«à¸²à¹Ħà¸Łà¸¥": 2024,
      "Ġà¸«à¸²à¹Ģà¸¥à¸Ĥ": 2025,
      "à¹ĥà¸Ļà¸ķà¸²à¸£à¸²à¸ĩà¸«à¸£": 2026,
      "Ġvery": 2027,
      "Ġà¸¥à¸ļà¹Ħà¸Łà¸¥": 2028,
      "Ġà¸¥à¸ļà¸Ħ": 2029,
      "Ġstatus": 2030,
      "à¸Ľà¸£à¸°à¸§": 2031,
      "à¸ļà¸Ħà¸Ļà¸Ń": 2032,
      "-]+@[": 2033,
      "UPDATE": 2034,
      "Ġ>/": 2035,
      "Ġ]];": 2036,
      "à¸ļà¸Īà¸³à¸Ļà¸§à¸Ļà¸ļà¸£à¸£à¸Ĺ": 2037,
      "à¸ļà¸Īà¸³à¸Ļà¸§à¸Ļà¸ªà¸¡à¸²à¸Ĭ": 2038,
      "ĠloadData": 2039,
      "Ġ''.": 2040,
      "Ġnewline": 2041,
      "ramm": 2042,
      "Ġbefore": 2043,
      "à¸Ħà¸§à¸£à¸ĸ": 2044,
      "Ġbuild": 2045,
      "à¹ĥà¸Ļà¸£à¸°à¸ļà¸ļà¸«à¸£": 2046,
      "Ġwhen": 2047,
      "à¸Ķà¸ķà¸²à¸¡à¹Ĥà¸Ķà¸¢": 2048,
      "Ġgener": 2049,
      "gister": 2050,
      "Ġspea": 2051,
      "Ġelse": 2052,
      "Ġnums": 2053,
      "ĠclearTimeout": 2054,
      "Ġraise": 2055,
      "Ġupdate": 2056,
      "à¸²à¸Īà¸²à¸ģà¸ķà¸²à¸£à¸²à¸ĩ": 2057,
      "à¸¥à¸ķà¸²à¸¡": 2058,
      "à¸¥à¸°à¸ļà¸£à¸£à¸Ĺ": 2059,
      "insert": 2060,
      "async": 2061,
      "à¸ĩà¸«à¸¡à¸Ķà¹ĥà¸Ļà¹Ĥà¸Łà¸¥à¹Ģà¸Ķà¸Ńà¸£": 2062,
      "%+-]+@[": 2063,
      "._%+-]+@[": 2064,
      ".-]+\\.[": 2065,
      "CMD": 2066,
      "DictReader": 2067,
      "GROUP": 2068,
      "HAVING": 2069,
      "KDIR": 2070,
      "WORKDIR": 2071,
      "^,]+)')": 2072,
      "czf": 2073,
      "empty": 2074,
      "freq": 2075,
      "gmatch": 2076,
      "ironment": 2077,
      "join": 2078,
      "payment": 2079,
      "rglob": 2080,
      "slim": 2081,
      "Ġrange": 2082,
      "Ġenvironment": 2083,
      "à¸£à¸²à¸¢à¸ģà¸²à¸£à¸ķ": 2084,
      "à¸ļà¸Ħà¸§à¸²à¸¡à¸ĸ": 2085,
      "à¸ģà¹ĥà¸Ļà¸ķà¸²à¸£à¸²à¸ĩà¹ģà¸ļà¸ļ": 2086,
      "à¸§à¸Ħà¸£à¸²à¸§": 2087,
      "à¹ģà¸Ĭà¸£": 2088,
      "à¸¢à¸Ĥà¸Ńà¸ĩà¸£à¸²à¸¢à¸ģà¸²à¸£à¸ķ": 2089,
      "à¸Ńà¸ĩà¸£à¸°à¸§": 2090,
      "installed": 2091,
      "à¸Ńà¸¢à¹Ħà¸Ľà¸¡à¸²à¸ģ": 2092,
      "à¸Ńà¸ļà¸Ļà¸Ĳà¸²à¸Ļà¹ĥà¸«à¸¡": 2093,
      "retries": 2094,
      "à¸ļà¸ļà¸²à¸ĩà¸Ľà¸£à¸°à¹Ģà¸łà¸Ĺ": 2095,
      "Ġfailed": 2096,
      "isalnum": 2097,
      "Ġà¹ģà¸¢à¸ģà¸Ĥ": 2098,
      "à¸Ħà¸³à¹ĥà¸Ļà¸Ĥ": 2099,
      "Ġà¸«à¸²à¸ľà¸¥à¸£à¸§à¸¡à¸Ĥà¸Ńà¸ĩà¸ķ": 2100,
      "Ġà¸ķà¸²à¸£à¸²à¸ĩà¹ģà¸ļà¸ļà¸ĩ": 2101,
      "à¸Ńà¸£à¸§à¸¡à¸¡à¸²à¸ģà¸ģà¸§": 2102,
      "Ġaverage": 2103,
      "Ġexcept": 2104,
      "Ġà¹ģà¸¥à¸°à¸Ħà¸§à¸²à¸¡à¸¥": 2105,
      "Ġ'([^,]+)')": 2106,
      "Ġunique": 2107,
      "à¹Ģà¸¡à¸¥à¹ģà¸ļà¸ļà¸ŀ": 2108,
      "ĠException": 2109,
      "Ġartifact": 2110,
      "\")": 2111,
      "01": 2112,
      "02": 2113,
      "04": 2114,
      "05": 2115,
      "06": 2116,
      "07": 2117,
      "09": 2118,
      "27": 2119,
      "28": 2120,
      "29": 2121,
      "50": 2122,
      "51": 2123,
      "52": 2124,
      "53": 2125,
      "57": 2126,
      "58": 2127,
      "59": 2128,
      "emale": 2129,
      "ike": 2130,
      "na": 2131,
      "ph": 2132,
      "ĠR": 2133,
      "Ġà¸£": 2134,
      "à¸ī": 2135,
      "à¸łà¸²à¸": 2136,
      "à¸Ńà¸§": 2137,
      "à¸Ļà¸Īà¸°": 2138,
      "à¹Ģà¸Ī": 2139,
      "Ġsi": 2140,
      "à¸Ńà¸ļà¸Ħ": 2141,
      "ance": 2142,
      "Ġfri": 2143,
      "Ġlike": 2144,
      "tural": 2145,
      "à¸Ĺà¸³à¸ĩà¸²à¸Ļ": 2146,
      "Ġaf": 2147,
      "Ġà¸Īà¸°": 2148,
      "mple": 2149,
      "ating": 2150,
      "ship": 2151,
      "Ġchang": 2152,
      "lic": 2153,
      "Ġyet": 2154,
      "lassifi": 2155,
      "Ġrice": 2156,
      "Ġparticles": 2157,
      "Ġsentence": 2158,
      "ĠâĨĴ": 2159,
      "Ġdiffer": 2160,
      "à¸łà¸²à¸ŀ": 2161,
      "'s": 2162,
      "eo": 2163,
      "kh": 2164,
      "la": 2165,
      "mai": 2166,
      "oint": 2167,
      "ook": 2168,
      "run": 2169,
      "so": 2170,
      "yal": 2171,
      "yste": 2172,
      "Ġro": 2173,
      "Ġqu": 2174,
      "ĠRe": 2175,
      "à¸²à¸ļ": 2176,
      "à¸Ļà¹Ħà¸Ľ": 2177,
      "à¸Ļà¸Ħà¸³à¸ª": 2178,
      "à¸ļà¸Ĥ": 2179,
      "à¸ļà¸ģà¸§": 2180,
      "à¹Ģà¸Ĭ": 2181,
      "à¸ķà¸ĸ": 2182,
      "à¸§à¸Ĺ": 2183,
      "à¹ģà¸Ī": 2184,
      "Ġsp": 2185,
      "Ġsame": 2186,
      "Ġsound": 2187,
      "del": 2188,
      "Ġcan": 2189,
      "Ġclose": 2190,
      "Ġton": 2191,
      "Ġrel": 2192,
      "Ġle": 2193,
      "Ġà¹Ģà¸Ĥà¸²": 2194,
      "Ġinhe": 2195,
      "ulary": 2196,
      "Ġad": 2197,
      "ust": 2198,
      "tral": 2199,
      "à¸¶à¹Ī": 2200,
      "abulary": 2201,
      "erson": 2202,
      "ĠThis": 2203,
      "Ġcommon": 2204,
      "ign": 2205,
      "à¹Ĥà¸Ķà¸¢à¹Ģà¸£": 2206,
      "sonant": 2207,
      "à¸ĵà¸Ĺ": 2208,
      "ĠNo": 2209,
      "very": 2210,
      "ocabulary": 2211,
      "Ġcontexts": 2212,
      "Ġformality": 2213,
      "ight": 2214,
      "ized": 2215,
      "à¸Ĺà¸£à¸²à¸ļ": 2216,
      "Ġwritten": 2217,
      "ative": 2218,
      "xample": 2219,
      "Ġamong": 2220,
      "Ġmeaning": 2221,
      "Ġfriends": 2222,
      "Ġdifferent": 2223,
      "ystem": 2224,
      "à¸ļà¸ģà¸§à¸Ļà¸ª": 2225,
      ".,": 2226,
      "ET": 2227,
      "Function": 2228,
      "Git": 2229,
      "Lo": 2230,
      "OST": 2231,
      "TP": 2232,
      "TTP": 2233,
      "UT": 2234,
      "con": 2235,
      "ction": 2236,
      "cap": 2237,
      "ger": 2238,
      "ior": 2239,
      "mit": 2240,
      "ould": 2241,
      "point": 2242,
      "she": 2243,
      "sul": 2244,
      "tand": 2245,
      "ude": 2246,
      "uct": 2247,
      "Ġal": 2248,
      "Ġone": 2249,
      "ĠOOP": 2250,
      "ĠREST": 2251,
      "Ĵà¸Ļ": 2252,
      "à¸Ĵà¸Ļ": 2253,
      "à¸²à¹ģ": 2254,
      "à¸²à¸Ńà¸¢": 2255,
      "à¸²à¹Ħà¸Ķ": 2256,
      "à¸²à¹ĥà¸«": 2257,
      "à¸²à¹Ĥà¸Ħ": 2258,
      "à¸Ńà¸Ń": 2259,
      "à¸Ńà¹ģà¸Ļà¸§": 2260,
      "à¸²à¸Ħà¸£": 2261,
      "à¸£à¸ļà¸ģà¸§à¸Ļà¸ª": 2262,
      "à¸Ļà¸ľ": 2263,
      "à¸Ļà¹Ģà¸Ĥ": 2264,
      "à¸Ļà¸«à¸¥": 2265,
      "à¹Ģà¸Ńà¸ĩ": 2266,
      "à¸ļà¸«à¸Ļ": 2267,
      "à¸ķà¸Ħà¸§à¸²à¸¡": 2268,
      "à¸¥à¸Ńà¸ĩ": 2269,
      "à¸¥à¹ģà¸¥à¸°": 2270,
      "à¸ģà¸Ĺ": 2271,
      "à¸ģà¸Ńà¸¢": 2272,
      "à¸ģà¸ĸ": 2273,
      "à¸ģà¹Ģà¸£": 2274,
      "à¸ģà¹Ģà¸«à¸ķ": 2275,
      "à¸ģà¸Ħà¸³à¸ª": 2276,
      "à¸µ.": 2277,
      "Ġà¸¡": 2278,
      "à¸§à¸Ļà¸Ĺ": 2279,
      "à¸§à¹Ģà¸Ńà¸ĩ": 2280,
      "à¹ģà¸Ĺà¸£": 2281,
      "à¸ĩà¹Ħà¸Ķ": 2282,
      "à¸ĩà¹Ģà¸«à¸¡à¸²à¸°à¸ģ": 2283,
      "à¸ĩà¹Ĩ": 2284,
      "à¸Ĺà¸ļ": 2285,
      "à¸¡à¸ĩà¸²à¸Ļà¸ģ": 2286,
      "à¸Ķà¸ª": 2287,
      "à¸Ķà¸ģà¸²à¸£": 2288,
      "à¸Ķà¸Ħà¸£": 2289,
      "à¸Ķà¹Ģà¸Ľ": 2290,
      "à¸Ķà¹Ĥà¸Ħ": 2291,
      "à¸Ķà¸Ħà¸³à¸ª": 2292,
      "à¸Ķà¹Ĥà¸Ķà¸¢": 2293,
      "à¸Ķà¸ģà¸²à¸£à¹Ģà¸£": 2294,
      "à¸Ķà¸¥à¸Ńà¸ĩ": 2295,
      "à¸Ħà¸²à¸Ķ": 2296,
      "à¸Ħà¸§à¸²à¸¡à¸ľ": 2297,
      "à¸Ħà¸ĩà¸Ĺ": 2298,
      "à¸Ħà¸Ļà¹Ģà¸£": 2299,
      "à¸¢à¸§à¸Ĥ": 2300,
      "à¸Ńà¸ĩà¸ģ": 2301,
      "à¸°à¸Ļ": 2302,
      "Ġsign": 2303,
      "à¸²à¸¢à¸Ĥ": 2304,
      "à¸²à¸Ļà¸«à¸£": 2305,
      "à¸Ľà¹Ģà¸Ķ": 2306,
      "the": 2307,
      "à¸Ńà¸¢à¸Ĥà¸Ńà¸ĩà¸Ľ": 2308,
      "à¸²à¸ĩà¸ª": 2309,
      "à¸²à¸ĩà¹ģà¸¥": 2310,
      "à¸²à¸ĩà¸ģà¸²à¸£": 2311,
      "à¸²à¸ĩà¹Ħà¸£": 2312,
      "à¸ģà¸²à¸£à¸ĵ": 2313,
      "à¸Īà¸ļ": 2314,
      "à¸Īà¸¡à¸ķ": 2315,
      "à¹Ĥà¸Īà¸¡à¸ķ": 2316,
      "Ġcase": 2317,
      "à¸Ńà¸ĩà¸ģà¸²à¸£à¸Ħà¸ĩà¸Ĺ": 2318,
      "LETE": 2319,
      "ery": 2320,
      "erized": 2321,
      "à¸²à¸¡à¸²à¸Ħà¸£": 2322,
      "à¸²à¸ģà¸³à¸¥": 2323,
      "à¸ĩà¸²à¸Ļà¸«à¸¥": 2324,
      "ences": 2325,
      "ĠPOST": 2326,
      "ĠPUT": 2327,
      "à¹ģà¸ļà¸ļà¸ģà¸³": 2328,
      "à¸Ĥà¸Ńà¸ļà¸Ħ": 2329,
      "Ġpl": 2330,
      "Ġperson": 2331,
      "ising": 2332,
      "ale": 2333,
      "à¸Ńà¸Ļà¸«à¸¥": 2334,
      "à¸¢à¸Ļà¹Ĥà¸Ľà¸£à¹ģà¸ģà¸£à¸¡": 2335,
      "à¸§à¸¢à¸ļ": 2336,
      "à¸§à¸¢à¸§": 2337,
      "à¸§à¸¢à¸Ħà¸£": 2338,
      "à¸§à¸¢à¸ķà¸Ńà¸ļ": 2339,
      "Ġrecursion": 2340,
      "Ġregister": 2341,
      "à¸ģà¸§à¸¡à¸§": 2342,
      "à¸łà¸²à¸©à¸²à¸ĩ": 2343,
      "à¸ªà¸³à¸Ħ": 2344,
      "à¸ĸà¸²à¸¡à¹ģà¸ļà¸ļà¸ģà¸³": 2345,
      "à¸Ļà¸Ĺà¸²à¸ĩà¸ģà¸²à¸£": 2346,
      "eterized": 2347,
      "à¸Ĺà¸³à¸Ł": 2348,
      "Ġà¸ªà¸£": 2349,
      "à¸¥à¸ĩà¸¥": 2350,
      "à¸Ļà¸¡à¸²à¸ģ": 2351,
      "Ġnormal": 2352,
      "Ġà¹ģà¸¥à¸°à¸§": 2353,
      "Ġà¹ģà¸¥à¸°à¸Īà¸°": 2354,
      "Ġlogging": 2355,
      "Ġdon": 2356,
      "Ġwould": 2357,
      "eutral": 2358,
      "Ġà¸Ĥà¸ĵ": 2359,
      "Ġà¹Ĥà¸Ķà¸¢à¸ķ": 2360,
      "Ġà¹Ĥà¸Ķà¸¢à¹ĥà¸Ĭ": 2361,
      "à¸ļà¸ľà¸¥à¸¥": 2362,
      "Ġvowel": 2363,
      "Ġvocabulary": 2364,
      "à¹Ħà¸Ĥà¸Ĥ": 2365,
      "à¸Ńà¸Ĺà¸Ķà¸¥à¸Ńà¸ĩ": 2366,
      "ounger": 2367,
      "à¸¥à¸Ńà¸ģà¹ĥà¸«": 2368,
      "ater": 2369,
      "à¸ķà¸Ńà¸ļà¸Ńà¸¢": 2370,
      "Ġbase": 2371,
      "à¸ģà¸£à¸°à¸Ĺà¸ļ": 2372,
      "à¸ĩà¸¡à¸²à¸Ķ": 2373,
      "mbig": 2374,
      "à¸¢à¸ģà¹ĥà¸Ĭ": 2375,
      "à¸¢à¸ģà¸Īà¸²à¸ģ": 2376,
      "à¸Ķà¸ŀà¸¥à¸²à¸Ķà¸¢": 2377,
      "Ġendpoint": 2378,
      "ĠThe": 2379,
      "Ġà¸Ħà¸§à¸£à¸ķà¸Ńà¸ļà¸Ńà¸¢": 2380,
      "Ġgramm": 2381,
      "Ġunders": 2382,
      "bling": 2383,
      "à¹Ĥà¸Ķà¸¢à¸Ī": 2384,
      "à¹Ĥà¸Ķà¸¢à¸ķà¸£à¸ĩ": 2385,
      "à¸ĩà¸ªà¸£": 2386,
      "Ġà¹ģà¸ļà¸ļà¹Ħà¸¡": 2387,
      "Ġà¹ģà¸ļà¸ļà¸łà¸²à¸©à¸²à¸ĩ": 2388,
      "Recursion": 2389,
      "sive": 2390,
      "à¸§à¸¡à¸ģ": 2391,
      "à¸Ĥà¸Ńà¸ĩà¹Ĥà¸Ľà¸£à¹ģà¸ģà¸£à¸¡": 2392,
      "tern": 2393,
      "à¸ĵà¸Ĺà¸£à¸²à¸ļ": 2394,
      "Ġencap": 2395,
      "ameterized": 2396,
      "à¸įà¸Ĥà¸Ńà¸ĩ": 2397,
      "ĠDELETE": 2398,
      "à¸²à¹Ģà¸£à¸²à¸ģà¸³à¸¥": 2399,
      "à¸²à¹Ħà¸Ľà¸ģ": 2400,
      "à¸įà¸«à¸²à¸¢": 2401,
      "fic": 2402,
      "Ġneed": 2403,
      "Ġclassifi": 2404,
      "Ġparameterized": 2405,
      "à¸įà¸«à¸²à¹ĥà¸«": 2406,
      "à¸įà¸«à¸²à¹Ģà¸Ķ": 2407,
      "ritance": 2408,
      "Ġonly": 2409,
      "à¸£à¸°à¸ļà¸ļà¸£": 2410,
      "ĠGET": 2411,
      "à¸§à¸Ļà¹Ħà¸¡": 2412,
      "à¸ķà¸£à¸§à¸Īà¸ªà¸Ńà¸ļà¸Ľ": 2413,
      "à¹Ĥà¸Ľà¸£à¹ģà¸ģà¸£à¸¡à¸Ħ": 2414,
      "à¸ļà¸²à¸¢à¸Ħà¸§à¸²à¸¡à¸ªà¸³à¸Ħ": 2415,
      "Ġmarks": 2416,
      "ĠHTTP": 2417,
      "à¸Ħà¸§à¸£à¸£": 2418,
      "Ġwhere": 2419,
      "à¸Ķà¸ķà¸²à¸¡à¸ŀà¸¤à¸ķ": 2420,
      "Ġgood": 2421,
      "Ġgender": 2422,
      "à¸Ńà¸«à¸¢": 2423,
      "à¸Ńà¸«à¸¥à¸Ńà¸ģà¹ĥà¸«": 2424,
      "Ġpronouns": 2425,
      "Ġparticle": 2426,
      "à¸²à¹ĥà¸Īà¹Ģà¸£": 2427,
      "Ġsome": 2428,
      "à¸ĩà¸ķà¸£à¸§à¸Īà¸ªà¸Ńà¸ļà¸Ľ": 2429,
      "à¸ĩà¸ķà¸£à¸§à¸Īà¸ªà¸Ńà¸ļà¸ªà¸²à¹Ģà¸«à¸ķ": 2430,
      "à¸ģà¸£à¸£à¸¡à¸£": 2431,
      "à¸ģà¸£à¸£à¸¡à¸Ĥà¸Ńà¸ĩà¹Ĥà¸Ľà¸£à¹ģà¸ģà¸£à¸¡": 2432,
      "Ġà¸Ĺà¸³à¹ĥà¸«": 2433,
      "Ġspeaker": 2434,
      "à¸Ļà¸Īà¸°à¸§à¸Ļà¹Ħà¸¡": 2435,
      "à¹Ģà¸Īà¸Ńà¸£": 2436,
      "Ġsibling": 2437,
      "Ġafter": 2438,
      "Ġà¸Īà¸°à¸Ĭ": 2439,
      "à¸łà¸²à¸ŀà¸§": 2440,
      "ooks": 2441,
      "Ġquery": 2442,
      "Ġspac": 2443,
      "Ġinheritance": 2444,
      "Logging": 2445,
      "sulation": 2446,
      "ucture": 2447,
      "à¸Ĵà¸Ļà¸²à¹ģ": 2448,
      "à¸Ńà¹ģà¸Ļà¸§à¸Ħ": 2449,
      "à¸ķà¸Ħà¸§à¸²à¸¡à¸Ħ": 2450,
      "à¸¥à¹ģà¸¥à¸°à¸ŀà¸¤à¸ķ": 2451,
      "à¸§à¹Ģà¸Ńà¸ĩà¹Ģà¸ŀ": 2452,
      "à¹ģà¸Ĺà¸£à¸ģà¸Ħà¸³à¸ª": 2453,
      "à¸¡à¸ĩà¸²à¸Ļà¸ģà¸³à¸¥": 2454,
      "à¸Ķà¸ģà¸²à¸£à¹Ģà¸Ĥ": 2455,
      "à¸Ķà¹Ĥà¸Ķà¸¢à¹Ħà¸¡": 2456,
      "à¸Ħà¸²à¸Ķà¸«à¸§": 2457,
      "à¸Ľà¹Ģà¸Ķà¸ķà¸Ħà¸§à¸²à¸¡à¸Ħ": 2458,
      "à¸¢à¸Ļà¹Ĥà¸Ľà¸£à¹ģà¸ģà¸£à¸¡à¹Ĥà¸Ķà¸¢à¸Ī": 2459,
      "à¸§à¸¢à¸ķà¸Ńà¸ļà¸¥": 2460,
      "à¸ĸà¸²à¸¡à¹ģà¸ļà¸ļà¸ģà¸³à¸ģà¸§à¸¡à¸§": 2461,
      "à¸Ļà¸Ĺà¸²à¸ĩà¸ģà¸²à¸£à¸ŀ": 2462,
      "Ġà¹ģà¸¥à¸°à¸Īà¸°à¸Ń": 2463,
      "Ġà¸Ĥà¸ĵà¸°à¸Ļ": 2464,
      "à¸Ńà¸Ĺà¸Ķà¸¥à¸Ńà¸ĩà¹ģà¸ģ": 2465,
      "à¸¢à¸ģà¸Īà¸²à¸ģà¸ĩà¸²à¸Ļà¸«à¸¥": 2466,
      "Ġunderstand": 2467,
      "à¸ĵà¸Ĺà¸£à¸²à¸ļà¹Ĥà¸Ķà¸¢à¹Ģà¸£": 2468,
      "Ġencapsulation": 2469,
      "à¸Ĵà¸Ļà¸²à¹ģà¸¢à¸ģà¸Īà¸²à¸ģà¸ĩà¸²à¸Ļà¸«à¸¥": 2470,
      "'m": 2471,
      ")**:": 2472,
      "No": 2473,
      "Qu": 2474,
      "Us": 2475,
      "af": 2476,
      "ak": 2477,
      "ci": 2478,
      "casual": 2479,
      "ear": 2480,
      "ful": 2481,
      "ften": 2482,
      "gment": 2483,
      "has": 2484,
      "ks": 2485,
      "kha": 2486,
      "ty": 2487,
      "tua": 2488,
      "ting": 2489,
      "ters": 2490,
      "Ġj": 2491,
      "Ġes": 2492,
      "à¹Ĭ": 2493,
      "Ġà¸¢": 2494,
      "Ġsep": 2495,
      "orrect": 2496,
      "orrow": 2497,
      "Ġà¹Ģà¸¡": 2498,
      "Ġà¹Ģà¸¥": 2499,
      "Ġà¹Ģà¸Ķ": 2500,
      "eral": 2501,
      "eness": 2502,
      "ĠPar": 2503,
      "ings": 2504,
      "Ġfemale": 2505,
      "Ġpe": 2506,
      "ural": 2507,
      "Ġdepending": 2508,
      "tions": 2509,
      "Ġcode": 2510,
      "Ġcomp": 2511,
      "Ġbooks": 2512,
      "Ġ(\"": 2513,
      "Ġemp": 2514,
      "Ġout": 2515,
      "Ġmu": 2516,
      "Ġmon": 2517,
      "Ġmale": 2518,
      "lease": 2519,
      "ard": 2520,
      "arate": 2521,
      "use": 2522,
      "iteness": 2523,
      "Ġvs": 2524,
      "Ġconsonant": 2525,
      "umb": 2526,
      "ching": 2527,
      "ouns": 2528,
      "ents": 2529,
      "Ġtransl": 2530,
      "ationship": 2531,
      "anguage": 2532,
      "Ġending": 2533,
      "Ġstructure": 2534,
      "alling": 2535,
      "allel": 2536,
      "Ġtoday": 2537,
      "Ġorder": 2538,
      "ates": 2539,
      "Ġthem": 2540,
      "ĠCon": 2541,
      "ĠClassifi": 2542,
      "Ġrising": 2543,
      "Ġsegment": 2544,
      "bject": 2545,
      "Ġuse": 2546,
      "Ġusing": 2547,
      "Ġoffic": 2548,
      "ick": 2549,
      "ization": 2550,
      "Ġeaten": 2551,
      "Ġmodel": 2552,
      "Ġwriting": 2553,
      "ugh": 2554,
      "Ġphone": 2555,
      "Ġabout": 2556,
      "Ġchanges": 2557,
      "Ġroyal": 2558,
      "Ġrelationship": 2559,
      "Ġsignal": 2560,
      "mbigu": 2561,
      "Ġclassifier": 2562,
      "Ġspaces": 2563,
      "hasis": 2564,
      "Ġseparate": 2565,
      "Ġemphasis": 2566,
      "Ġsegmentation": 2567,
      "Ġofficial": 2568,
      ".\"": 2569,
      "Example": 2570,
      "Have": 2571,
      "Tone": 2572,
      "Vowel": 2573,
      "act": 2574,
      "ake": 2575,
      "auti": 2576,
      "atic": 2577,
      "ause": 2578,
      "augh": 2579,
      "ble": 2580,
      "ew": 2581,
      "een": 2582,
      "fl": 2583,
      "fin": 2584,
      "female": 2585,
      "go": 2586,
      "gth": 2587,
      "get": 2588,
      "ir": 2589,
      "iv": 2590,
      "ix": 2591,
      "ion": 2592,
      "mult": 2593,
      "mall": 2594,
      "mic": 2595,
      "ning": 2596,
      "os": 2597,
      "ous": 2598,
      "olog": 2599,
      "osi": 2600,
      "oice": 2601,
      "rude": 2602,
      "sa": 2603,
      "ub": 2604,
      "ven": 2605,
      "val": 2606,
      "ween": 2607,
      "yll": 2608,
      "yone": 2609,
      "Ġà¹Ģ": 2610,
      "Ġà¹ĥ": 2611,
      "Ġte": 2612,
      "ĠEr": 2613,
      "Ġà¹Ħà¸«à¸¡": 2614,
      "ĠUs": 2615,
      "à¹ĭ": 2616,
      "à¸Ļà¸²à¸¡": 2617,
      "à¸´à¹ī": 2618,
      "à¸ĩà¸²à¸¡": 2619,
      "à¹Ħà¸«à¸£": 2620,
      "à¸¢à¸§": 2621,
      "à¸ªà¸Ķ": 2622,
      "informal": 2623,
      "iness": 2624,
      "inship": 2625,
      "Ġsl": 2626,
      "Ġsing": 2627,
      "Ġsystem": 2628,
      "Ġsmall": 2629,
      "Ġsub": 2630,
      "ĠSystem": 2631,
      "dee": 2632,
      "Ġcorrect": 2633,
      "ans": 2634,
      "anwords": 2635,
      "aneo": 2636,
      "ense": 2637,
      "red": 2638,
      "tical": 2639,
      "Ġfre": 2640,
      "Ġfalling": 2641,
      "Ġter": 2642,
      "Ġdeter": 2643,
      "Ġdelic": 2644,
      "tional": 2645,
      "Ġbet": 2646,
      "Ġbound": 2647,
      "Ġbec": 2648,
      "Ġà¸Ħà¸Ļ": 2649,
      "Ġà¸ªà¸§": 2650,
      "Ġage": 2651,
      "ese": 2652,
      "Ġex": 2653,
      "Ġeven": 2654,
      "Ġnon": 2655,
      "Ġneutral": 2656,
      "Ġnouns": 2657,
      "Ġomit": 2658,
      "Ġmat": 2659,
      "Ġmore": 2660,
      "Ġlow": 2661,
      "Ġloanwords": 2662,
      "Ġdro": 2663,
      "Ġwater": 2664,
      "usly": 2665,
      "usiness": 2666,
      "trac": 2667,
      "Ġconj": 2668,
      "uments": 2669,
      "à¸ģà¸©à¸ĵ": 2670,
      "attern": 2671,
      "andard": 2672,
      "entence": 2673,
      "aced": 2674,
      "Ġ256": 2675,
      "Ġthat": 2676,
      "Ġthings": 2677,
      "angers": 2678,
      "**,": 2679,
      "dia": 2680,
      "Ġdoes": 2681,
      "ays": 2682,
      "pect": 2683,
      "peci": 2684,
      "ĠTone": 2685,
      "ĠTra": 2686,
      "Ġstrangers": 2687,
      "mmon": 2688,
      "Ġget": 2689,
      "Ġwork": 2690,
      "Ġchoice": 2691,
      "atement": 2692,
      "dern": 2693,
      "ĠFormal": 2694,
      "Ġyes": 2695,
      "Ġyounger": 2696,
      "ople": 2697,
      "oliteness": 2698,
      "Ġrul": 2699,
      "Ġhigh": 2700,
      "Ġmedia": 2701,
      "Ġoften": 2702,
      "lowly": 2703,
      "ticles": 2704,
      "Ġstandard": 2705,
      "Ġstatement": 2706,
      "ious": 2707,
      "ocial": 2708,
      "|---|": 2709,
      "à¸²à¸§à¸«à¸£": 2710,
      "Ġobjects": 2711,
      "Ġits": 2712,
      "Ġverbs": 2713,
      "Ġbeauti": 2714,
      "ĠHe": 2715,
      "ĠHow": 2716,
      "|---|---|": 2717,
      "|---|---|---|": 2718,
      "Ġmost": 2719,
      "ference": 2720,
      "Ġanyone": 2721,
      "Ġsoften": 2722,
      "Ġsentences": 2723,
      "ĠComp": 2724,
      "Ġgeneral": 2725,
      "natural": 2726,
      "ĠRo": 2727,
      "Ġà¸£à¸ĸ": 2728,
      "Ġchanging": 2729,
      "lication": 2730,
      "lassifiers": 2731,
      "Ġsounds": 2732,
      "Ġtones": 2733,
      "they": 2734,
      "Ġplural": 2735,
      "ĠThere": 2736,
      "Ġgrammar": 2737,
      "Ques": 2738,
      "akes": 2739,
      "Ġjust": 2740,
      "Ġespeci": 2741,
      "Ġpeople": 2742,
      "Ġmuch": 2743,
      "Ġmonks": 2744,
      "Ġconsonants": 2745,
      "Ġtranslating": 2746,
      "ĠClassifier": 2747,
      "Ġphonemic": 2748,
      "Ġroyalty": 2749,
      "mbiguous": 2750,
      "multaneo": 2751,
      "ology": 2752,
      "yllable": 2753,
      "ĠEra": 2754,
      "Ġsingle": 2755,
      "Ġdeterm": 2756,
      "Ġdelicious": 2757,
      "Ġbetween": 2758,
      "Ġbecause": 2759,
      "à¸ģà¸©à¸ĵà¸Ļà¸²à¸¡": 2760,
      "Ġ2569": 2761,
      "Ġbeautiful": 2762,
      "Ġespecially": 2763,
      "multaneously": 2764,
      "\".": 2765,
      "\";": 2766,
      "'ll": 2767,
      ")**": 2768,
      ",\"": 2769,
      ".**": 2770,
      "90": 2771,
      "AI": 2772,
      "Bu": 2773,
      "Classifiers": 2774,
      "Eat": 2775,
      "LP": 2776,
      "The": 2777,
      "This": 2778,
      "VO": 2779,
      "ain": 2780,
      "atural": 2781,
      "aching": 2782,
      "case": 2783,
      "cuments": 2784,
      "dd": 2785,
      "du": 2786,
      "din": 2787,
      "dres": 2788,
      "eg": 2789,
      "ei": 2790,
      "eath": 2791,
      "eat": 2792,
      "efore": 2793,
      "fection": 2794,
      "gy": 2795,
      "gor": 2796,
      "gen": 2797,
      "gra": 2798,
      "han": 2799,
      "hist": 2800,
      "hat": 2801,
      "hic": 2802,
      "have": 2803,
      "high": 2804,
      "ill": 2805,
      "ich": 2806,
      "iation": 2807,
      "imal": 2808,
      "iew": 2809,
      "ja": 2810,
      "jun": 2811,
      "jec": 2812,
      "ken": 2813,
      "kay": 2814,
      "lit": 2815,
      "lder": 2816,
      "mation": 2817,
      "mue": 2818,
      "mid": 2819,
      "mark": 2820,
      "mary": 2821,
      "morrow": 2822,
      "nt": 2823,
      "nang": 2824,
      "now": 2825,
      "neutral": 2826,
      "oi": 2827,
      "ose": 2828,
      "ove": 2829,
      "odel": 2830,
      "ogra": 2831,
      "per": 2832,
      "pen": 2833,
      "pus": 2834,
      "pack": 2835,
      "ppe": 2836,
      "polite": 2837,
      "rac": 2838,
      "rapp": 2839,
      "sw": 2840,
      "sen": 2841,
      "sue": 2842,
      "ta": 2843,
      "ts": 2844,
      "tun": 2845,
      "uction": 2846,
      "ubject": 2847,
      "vel": 2848,
      "wn": 2849,
      "wal": 2850,
      "wat": 2851,
      "younger": 2852,
      "¼ī": 2853,
      "ï¼ī": 2854,
      "ĠO": 2855,
      "ĠV": 2856,
      "Ġà¹Ħ": 2857,
      "Ġà¸Ńà¸£": 2858,
      "Ġà¸Ļà¸°": 2859,
      "Ġrom": 2860,
      "Ġà¹Ĩ": 2861,
      "Ħà¸¢": 2862,
      "ĺà¸Ń": 2863,
      "à¸²à¹Ĩ": 2864,
      "à¸²à¹Ħà¸«à¸£": 2865,
      "à¸²à¸¥": 2866,
      "à¸²à¸¨": 2867,
      "à¸²à¸ª": 2868,
      "à¸Ļà¸Ħ": 2869,
      "à¸Ļà¸ģà¸²à¸£": 2870,
      "à¸Ļà¹Ħà¸¡": 2871,
      "à¸±à¹Ĭ": 2872,
      "à¸ļà¹ģ": 2873,
      "à¸ķà¸ķ": 2874,
      "à¸¥à¸¡": 2875,
      "à¸ģà¸Ħà¸£": 2876,
      "à¸µà¹ĭ": 2877,
      "Ġà¸ħ": 2878,
      "Ġà¸Ľ": 2879,
      "à¸§à¸¢à¸Ļ": 2880,
      "à¹ģà¸ķ": 2881,
      "à¸ĩà¸ĩ": 2882,
      "à¸ĩà¸Ħà¸£": 2883,
      "à¹Ħà¸«à¸Ļ": 2884,
      "à¸³à¹Ģà¸Ļ": 2885,
      "à¸¢à¸¢": 2886,
      "à¸Ńà¸ĩà¸Ļ": 2887,
      "onology": 2888,
      "ining": 2889,
      "ined": 2890,
      "Ġsqu": 2891,
      "Ġslowly": 2892,
      "Ġsyllable": 2893,
      "ĠSentence": 2894,
      "ĠSVO": 2895,
      "thing": 2896,
      "thogra": 2897,
      "à¸Ńà¸¢à¸¡à¸²à¸ģ": 2898,
      "orpus": 2899,
      "dent": 2900,
      "lling": 2901,
      "Ġclo": 2902,
      "Ġcar": 2903,
      "Ġcall": 2904,
      "Ġcla": 2905,
      "hed": 2906,
      "hen": 2907,
      "Ġà¹Ģà¸ª": 2908,
      "Ġà¹Ģà¸Ħà¸¢": 2909,
      "Ġà¹Ģà¸ĺà¸Ń": 2910,
      "ern": 2911,
      "erated": 2912,
      "anti": 2913,
      "anization": 2914,
      "rely": 2915,
      "tim": 2916,
      "tice": 2917,
      "tive": 2918,
      "tirely": 2919,
      "ĠPronoun": 2920,
      "ĠPlease": 2921,
      "ĠPattern": 2922,
      "Ġfron": 2923,
      "Ġfam": 2924,
      "Ġfull": 2925,
      "ĠLanguage": 2926,
      "Ġpunc": 2927,
      "Ġpron": 2928,
      "Ġpast": 2929,
      "Ġplease": 2930,
      "Ġposi": 2931,
      "Ġpoliteness": 2932,
      "ason": 2933,
      "tes": 2934,
      "alend": 2935,
      "alid": 2936,
      "alect": 2937,
      "Ġtake": 2938,
      "Ġreal": 2939,
      "Ġrepe": 2940,
      "Ġreally": 2941,
      "Ġregist": 2942,
      "Ġreference": 2943,
      "Ġreason": 2944,
      "ung": 2945,
      "Ġlay": 2946,
      "Ġlong": 2947,
      "Ġlanguage": 2948,
      "Ġlaugh": 2949,
      "Ġdefin": 2950,
      "ili": 2951,
      "ily": 2952,
      "Ġà¸ķà¸²à¸ģ": 2953,
      "Ġinform": 2954,
      "Ġinvers": 2955,
      "Ġinste": 2956,
      "Ġcome": 2957,
      "Ġcomb": 2958,
      "Ġbl": 2959,
      "Ġback": 2960,
      "Ġà¸Ħà¸°": 2961,
      "eting": 2962,
      "etpack": 2963,
      "à¹Ģà¸ŀà¸£": 2964,
      "Ġau": 2965,
      "Ġall": 2966,
      "Ġappe": 2967,
      "ggerated": 2968,
      "Ġequi": 2969,
      "Ġexa": 2970,
      "Ġnative": 2971,
      "Ġnick": 2972,
      "Ġnatural": 2973,
      "Ġover": 2974,
      "Ġokay": 2975,
      "Ġolder": 2976,
      "uncle": 2977,
      "unciation": 2978,
      "Ġmis": 2979,
      "Ġmid": 2980,
      "Ġmust": 2981,
      "Ġmakes": 2982,
      "Ġforget": 2983,
      "aroi": 2984,
      "Ġdis": 2985,
      "Ġdates": 2986,
      "Ġwent": 2987,
      "Ġway": 2988,
      "Ġà¸Ĥà¸Ńà¸ļà¸Ħ": 2989,
      "ceed": 2990,
      "using": 2991,
      "uses": 2992,
      "itching": 2993,
      "Ġvalid": 2994,
      "Ġcontrac": 2995,
      "uplication": 2996,
      "chan": 2997,
      "child": 2998,
      "Ġà¸ľà¸¡à¹Ħà¸Ľà¸ķ": 2999,
      "ently": 3000,
      "Ġthan": 3001,
      "Ġthir": 3002,
      "Ġthese": 3003,
      "diom": 3004,
      "there": 3005,
      "thern": 3006,
      "à¸¥à¸²à¸Ķà¸ģ": 3007,
      "Ġdocuments": 3008,
      "adjec": 3009,
      "ĠThan": 3010,
      "Ġ54": 3011,
      "Ġ555": 3012,
      "short": 3013,
      "pped": 3014,
      "Ġglass": 3015,
      "Ġtomorrow": 3016,
      "Ġdialect": 3017,
      "elf": 3018,
      "Ġorthogra": 3019,
      "see": 3020,
      "Ġchan": 3021,
      "Ġchat": 3022,
      "quently": 3023,
      "ĠFunction": 3024,
      "Ġyour": 3025,
      "Ġyear": 3026,
      "Ġinto": 3027,
      "Ġintern": 3028,
      "Ġwill": 3029,
      "Ġwithin": 3030,
      "Ġwithout": 3031,
      "oken": 3032,
      "status": 3033,
      "avor": 3034,
      "ĠJetpack": 3035,
      "terday": 3036,
      "à¸ĵà¸łà¸²à¸ŀ": 3037,
      "Ġentirely": 3038,
      "ressive": 3039,
      "aries": 3040,
      "struction": 3041,
      "ĠExample": 3042,
      "ĠNumb": 3043,
      "ĠNLP": 3044,
      "Ġrun": 3045,
      "Ġrude": 3046,
      "Ġsee": 3047,
      "Ġhow": 3048,
      "Ġà¸ģà¸£": 3049,
      "Ġà¸ģà¸³à¸¥": 3050,
      "Ġkha": 3051,
      "Ġkinship": 3052,
      "Ġknow": 3053,
      "Ġusage": 3054,
      "Ġshort": 3055,
      "Ġnee": 3056,
      "ticle": 3057,
      "exp": 3058,
      "à¸Ńà¹Ģà¸Ľà¸¥": 3059,
      "Ġappro": 3060,
      "Ġstays": 3061,
      "Ġparallel": 3062,
      "à¸²à¸§à¸¢": 3063,
      "gion": 3064,
      "ĠDon": 3065,
      "ĠGramm": 3066,
      "à¹ĥà¸Īà¸Ķ": 3067,
      "555": 3068,
      "motional": 3069,
      "Ġmarkers": 3070,
      "Ġbuy": 3071,
      "|---|---|---|---|": 3072,
      "ize": 3073,
      "Ġmoment": 3074,
      "Ġmodern": 3075,
      "ĠMark": 3076,
      "ĠModel": 3077,
      "Ġanimal": 3078,
      "Ġwho": 3079,
      "Ġwhat": 3080,
      "Ġwhich": 3081,
      "Ġspelling": 3082,
      "Ġlength": 3083,
      "Ġletters": 3084,
      "Ġcounting": 3085,
      "Ġprog": 3086,
      "Ġproble": 3087,
      "Ġprodu": 3088,
      "Ġproceed": 3089,
      "ĠâĨĶ": 3090,
      "ugation": 3091,
      "ĠWrit": 3092,
      "Ġà¸Ĺà¸³à¹Ħà¸¡": 3093,
      "ĠCould": 3094,
      "ĠCommon": 3095,
      "Ġgenerate": 3096,
      "Ġgenerating": 3097,
      "Ġspeaking": 3098,
      "ĠRom": 3099,
      "à¸Ńà¸§à¸²à¸Ļ": 3100,
      "Ġsimultaneously": 3101,
      "khon": 3102,
      "khan": 3103,
      "laeo": 3104,
      "ĠRegister": 3105,
      "Ġrelative": 3106,
      "Ġlevel": 3107,
      "Ġadding": 3108,
      "Ġadded": 3109,
      "Ġaddres": 3110,
      "Ġcommonly": 3111,
      "ĠNotes": 3112,
      "veryday": 3113,
      "ightly": 3114,
      "Ġalso": 3115,
      "Ġplaced": 3116,
      "Ġgrammatic": 3117,
      "Ġneeds": 3118,
      "Ġsomeone": 3119,
      "tuation": 3120,
      "erals": 3121,
      "ĠParallel": 3122,
      "ĠContext": 3123,
      "Vowels": 3124,
      "ived": 3125,
      "sawat": 3126,
      "valent": 3127,
      "Ġteaching": 3128,
      "ĠUsed": 3129,
      "à¸ĩà¸²à¸¡à¹Ģà¸ŀà¸£": 3130,
      "Ġslightly": 3131,
      "Ġsubmit": 3132,
      "Ġfrequently": 3133,
      "Ġterm": 3134,
      "Ġboundaries": 3135,
      "Ġomitting": 3136,
      "Ġmatters": 3137,
      "Ġconjugation": 3138,
      "Ġdoesn": 3139,
      "ĠTraining": 3140,
      "Ġrule": 3141,
      "Ġitself": 3142,
      "ĠCompose": 3143,
      "Questions": 3144,
      "Budd": 3145,
      "Eaten": 3146,
      "dinary": 3147,
      "egation": 3148,
      "fectionate": 3149,
      "junior": 3150,
      "liter": 3151,
      "nangsue": 3152,
      "pendent": 3153,
      "ractical": 3154,
      "rapping": 3155,
      "switching": 3156,
      "senior": 3157,
      "walk": 3158,
      "à¸ļà¹ģà¸¡": 3159,
      "à¸§à¸¢à¸Ļà¸°": 3160,
      "Ġsquint": 3161,
      "Ġclauses": 3162,
      "Ġpunctuation": 3163,
      "Ġpronunciation": 3164,
      "alendar": 3165,
      "Ġrepeat": 3166,
      "Ġregisters": 3167,
      "Ġlayer": 3168,
      "Ġinversion": 3169,
      "Ġinstead": 3170,
      "Ġappear": 3171,
      "Ġequivalent": 3172,
      "Ġexaggerated": 3173,
      "Ġnickname": 3174,
      "Ġà¸ľà¸¡à¹Ħà¸Ľà¸ķà¸¥à¸²à¸Ķà¸ģ": 3175,
      "Ġthird": 3176,
      "dioms": 3177,
      "adjective": 3178,
      "ĠThank": 3179,
      "Ġorthograph": 3180,
      "ĠNumber": 3181,
      "Ġkhao": 3182,
      "ĠModels": 3183,
      "Ġanimals": 3184,
      "Ġproblem": 3185,
      "Ġproduces": 3186,
      "Ġgrammatically": 3187,
      "sawatdee": 3188,
      "Buddhist": 3189
    },
    "merges": [
      [
        "à",
        "¸"
      ],
      [
        "à",
        "¹"
      ],
      [
        "à¸",
        "²"
      ],
      [
        "à¸",
        "Ń"
      ],
      [
        "à¸²",
        "à¸"
      ],
      [
        "à¸Ń",
        "à¸"
      ],
      [
        "à¹",
        "ī"
      ],
      [
        "à¹",
        "Ī"
      ],
      [
        "=",
        "="
      ],
      [
        "à¸",
        "£"
      ],
      [
        "à¸",
        "Ļ"
      ],
      [
        "à¸",
        "±"
      ],
      [
        "à¹",
        "Ģ"
      ],
      [
        "à¸",
        "ļ"
      ],
      [
        "à¹Ģ",
        "à¸"
      ],
      [
        "à¸",
        "ķ"
      ],
      [
        "à¸",
        "¥"
      ],
      [
        "à¸",
        "ģ"
      ],
      [
        "à¸",
        "µ"
      ],
      [
        "Ġ",
        "à¸"
      ],
      [
        "à¸",
        "§"
      ],
      [
        "à¸",
        "´"
      ],
      [
        "à¹",
        "ģ"
      ],
      [
        "à¸",
        "ĩ"
      ],
      [
        "à¹",
        "Ħ"
      ],
      [
        "à¸",
        "Ĺ"
      ],
      [
        "O",
        "N"
      ],
      [
        "à¸",
        "³"
      ],
      [
        "à¸",
        "¡"
      ],
      [
        "à¸",
        "Ķ"
      ],
      [
        "à¸",
        "·"
      ],
      [
        "à¸",
        "Ħ"
      ],
      [
        "à¹",
        "ĥ"
      ],
      [
        "à¸",
        "¢"
      ],
      [
        "à¸Ńà¸",
        "ĩ"
      ],
      [
        "à¸µ",
        "à¹Ī"
      ],
      [
        "o",
        "n"
      ],
      [
        "à¸",
        "°"
      ],
      [
        "à¸",
        "«"
      ],
      [
        "à¹",
        "Į"
      ],
      [
        "à¸",
        "ª"
      ],
      [
        "T",
        "E"
      ],
      [
        "==",
        "="
      ],
      [
        "==",
        "==="
      ],
      [
        "à¸",
        "Ĭ"
      ],
      [
        "i",
        "n"
      ],
      [
        "Ġ",
        "s"
      ],
      [
        "à¸²à¸",
        "¢"
      ],
      [
        "à¸²à¸",
        "Ļ"
      ],
      [
        "Ġ",
        "S"
      ],
      [
        "à¸",
        "Ľ"
      ],
      [
        "t",
        "h"
      ],
      [
        "S",
        "E"
      ],
      [
        "S",
        "T"
      ],
      [
        "à¸²à¸",
        "£"
      ],
      [
        "à¸Ńà¸",
        "¢"
      ],
      [
        "à¹ĥ",
        "à¸Ĭ"
      ],
      [
        "à¹ģ",
        "à¸¥"
      ],
      [
        "o",
        "r"
      ],
      [
        "à¸",
        "¹"
      ],
      [
        "à¸²à¸",
        "ĩ"
      ],
      [
        "à¸ģ",
        "à¸²à¸£"
      ],
      [
        "à¸Ńà¸",
        "ļ"
      ],
      [
        "à¸",
        "Ī"
      ],
      [
        "d",
        "e"
      ],
      [
        "à¸·",
        "à¹Ī"
      ],
      [
        "à¹",
        "Ĥ"
      ],
      [
        "l",
        "l"
      ],
      [
        "à¹ģà¸¥",
        "à¸°"
      ],
      [
        "Ġ",
        "c"
      ],
      [
        "O",
        "R"
      ],
      [
        "i",
        "p"
      ],
      [
        "à¸£",
        "à¸Ńà¸ļ"
      ],
      [
        "R",
        "E"
      ],
      [
        "à¸Ńà¸ĩ",
        "à¸ģà¸²à¸£"
      ],
      [
        "L",
        "E"
      ],
      [
        "Ġ",
        "0"
      ],
      [
        "C",
        "T"
      ],
      [
        "h",
        "e"
      ],
      [
        "à¸",
        "¸"
      ],
      [
        "à¸",
        "Ł"
      ],
      [
        "A",
        "M"
      ],
      [
        "Ġ",
        "à¹Ģà¸"
      ],
      [
        "I",
        "N"
      ],
      [
        "A",
        "TE"
      ],
      [
        "R",
        "U"
      ],
      [
        "X",
        "T"
      ],
      [
        "C",
        "ON"
      ],
      [
        "C",
        "ATE"
      ],
      [
        "G",
        "OR"
      ],
      [
        "I",
        "ON"
      ],
      [
        "P",
        "ON"
      ],
      [
        "P",
        "LE"
      ],
      [
        "S",
        "PON"
      ],
      [
        "TE",
        "XT"
      ],
      [
        "ĠS",
        "AM"
      ],
      [
        "ST",
        "RU"
      ],
      [
        "RE",
        "SPON"
      ],
      [
        "CT",
        "ION"
      ],
      [
        "IN",
        "STRU"
      ],
      [
        "CON",
        "TEXT"
      ],
      [
        "CATE",
        "GOR"
      ],
      [
        "ĠSAM",
        "PLE"
      ],
      [
        "RESPON",
        "SE"
      ],
      [
        "INSTRU",
        "CTION"
      ],
      [
        "CATEGOR",
        "Y"
      ],
      [
        "Ġ",
        "====="
      ],
      [
        "he",
        "ll"
      ],
      [
        "à¸Ł",
        "à¸¥"
      ],
      [
        "y",
        "th"
      ],
      [
        "yth",
        "on"
      ],
      [
        "e",
        "r"
      ],
      [
        "à¸²à¸",
        "¡"
      ],
      [
        "a",
        "n"
      ],
      [
        "u",
        "a"
      ],
      [
        "à¸²à¸",
        "ģ"
      ],
      [
        "à¸ĩ",
        "à¸²à¸Ļ"
      ],
      [
        "à¸Ńà¸",
        "¡"
      ],
      [
        "e",
        "n"
      ],
      [
        "à¸£à¸Ńà¸ļ",
        "à¸Ĺ"
      ],
      [
        "à¸",
        "ĸ"
      ],
      [
        "à¸«",
        "à¸£"
      ],
      [
        "r",
        "e"
      ],
      [
        "t",
        "i"
      ],
      [
        "à¹Ģ",
        "à¸£"
      ],
      [
        "à¸Ħ",
        "à¸£"
      ],
      [
        "à¸ļ",
        "à¸ļ"
      ],
      [
        "Ġ",
        "P"
      ],
      [
        "à¸",
        "ŀ"
      ],
      [
        "in",
        "g"
      ],
      [
        "à¹ģ",
        "à¸ļà¸ļ"
      ],
      [
        "à¸§",
        "à¸Ńà¸¢"
      ],
      [
        "c",
        "r"
      ],
      [
        "ip",
        "t"
      ],
      [
        "cr",
        "ipt"
      ],
      [
        "à¸",
        "Ĥ"
      ],
      [
        "Ġ",
        "f"
      ],
      [
        "Ġ",
        "L"
      ],
      [
        "Ġ",
        "p"
      ],
      [
        "à¹Ħ",
        "à¸Ķ"
      ],
      [
        "à¸¹",
        "à¹ī"
      ],
      [
        "Ġ",
        "à¸£à¸Ńà¸ļà¸Ĺ"
      ],
      [
        "à¹Ħ",
        "à¸Łà¸¥"
      ],
      [
        "ĠP",
        "ython"
      ],
      [
        "a",
        "s"
      ],
      [
        "Ġ",
        "A"
      ],
      [
        "à¸",
        "ľ"
      ],
      [
        "t",
        "e"
      ],
      [
        "Ġà¸",
        "ľ"
      ],
      [
        "i",
        "s"
      ],
      [
        "Ġs",
        "cript"
      ],
      [
        "à¹",
        "ĩ"
      ],
      [
        "à¸ļ",
        "à¸²à¸¢"
      ],
      [
        "à¸Ńà¸",
        "ĺ"
      ],
      [
        "u",
        "r"
      ],
      [
        "à¹ĥ",
        "à¸«"
      ],
      [
        "a",
        "l"
      ],
      [
        "ł",
        "à¸²à¸"
      ],
      [
        "à¸Ńà¸",
        "Ļ"
      ],
      [
        "à¸¢",
        "à¸Ļ"
      ],
      [
        "łà¸²à¸",
        "©"
      ],
      [
        "ĠL",
        "ua"
      ],
      [
        "à¸§",
        "à¸¢"
      ],
      [
        "Ġ",
        "t"
      ],
      [
        "Ġà¸",
        "Ĺ"
      ],
      [
        "à¸Ľ",
        "à¸ķ"
      ],
      [
        "à¸±",
        "à¹ī"
      ],
      [
        "Ġ",
        "re"
      ],
      [
        "u",
        "n"
      ],
      [
        "à¸´",
        "à¹Ī"
      ],
      [
        "à¸ģ",
        "à¸§"
      ],
      [
        "Ġ",
        "à¹ģ"
      ],
      [
        "à¸²à¸",
        "ķ"
      ],
      [
        "à¸",
        "łà¸²à¸©"
      ],
      [
        "à¸ª",
        "à¸³"
      ],
      [
        "à¸Ńà¸",
        "°"
      ],
      [
        "à¹Ģà¸",
        "Ľ"
      ],
      [
        "à¸Ħ",
        "à¸³"
      ],
      [
        "à¸ĸ",
        "à¸²à¸¡"
      ],
      [
        "Ġ",
        "l"
      ],
      [
        "ĠS",
        "hell"
      ],
      [
        "A",
        "N"
      ],
      [
        "A",
        "S"
      ],
      [
        "I",
        "ST"
      ],
      [
        "S",
        "IST"
      ],
      [
        "U",
        "SE"
      ],
      [
        "à¸¡",
        "à¸Ī"
      ],
      [
        "AN",
        "T"
      ],
      [
        "AS",
        "SIST"
      ],
      [
        "USE",
        "R"
      ],
      [
        "ASSIST",
        "ANT"
      ],
      [
        "ĠA",
        "I"
      ],
      [
        "à¸Ńà¸",
        "ģ"
      ],
      [
        "à¸µ",
        "à¹ī"
      ],
      [
        "à¸Ļ",
        "à¸³"
      ],
      [
        "Ġ",
        "de"
      ],
      [
        "Ġà¸",
        "«"
      ],
      [
        "à¸ª",
        "à¸Ħà¸£"
      ],
      [
        "ti",
        "on"
      ],
      [
        "Ġà¹Ģà¸",
        "Ĥ"
      ],
      [
        "i",
        "l"
      ],
      [
        "Ġ",
        "à¸ķ"
      ],
      [
        "Ġ",
        "in"
      ],
      [
        "t",
        "ur"
      ],
      [
        "à¹Ģà¸",
        "«"
      ],
      [
        "tur",
        "n"
      ],
      [
        "Ġ",
        "-"
      ],
      [
        "à¹Ħ",
        "à¸Ľ"
      ],
      [
        "Ġs",
        "hell"
      ],
      [
        "is",
        "t"
      ],
      [
        "à¸Ļ",
        "à¸Ĺ"
      ],
      [
        "à¸£",
        "à¸°"
      ],
      [
        "à¸Ńà¸",
        "£"
      ],
      [
        "Ġc",
        "o"
      ],
      [
        "à¸£",
        "à¸Ńà¸ĩ"
      ],
      [
        "Ġ",
        "="
      ],
      [
        "Ġ",
        "b"
      ],
      [
        "Ġ",
        "à¹Ħà¸Ķ"
      ],
      [
        "i",
        "te"
      ],
      [
        "u",
        "l"
      ],
      [
        "Ġà¸",
        "Ħ"
      ],
      [
        "Ġ",
        "as"
      ],
      [
        "à¸ļ",
        "à¸Ĺ"
      ],
      [
        "à¸ļà¸²à¸¢",
        "à¸ª"
      ],
      [
        "e",
        "t"
      ],
      [
        "à¹Ħ",
        "à¸£"
      ],
      [
        "à¸Ī",
        "à¸³"
      ],
      [
        "à¸Ĺ",
        "à¸³"
      ],
      [
        "à¸ģ",
        "à¸¥"
      ],
      [
        "à¸Ńà¸°",
        "à¹Ħà¸£"
      ],
      [
        "Ġ",
        "("
      ],
      [
        "à¸ļ",
        "à¹Ģà¸"
      ],
      [
        "à¹Ģà¸",
        "ŀ"
      ],
      [
        "à¹ģà¸ļà¸ļ",
        "à¸ĩ"
      ],
      [
        "Ġ",
        "à¹Ĥ"
      ],
      [
        "à¸Ļ",
        "à¸°"
      ],
      [
        "Ġà¸",
        "ŀ"
      ],
      [
        "Ġ",
        "à¸Ńà¸¢"
      ],
      [
        "à¸Ńà¸ĩà¸ģà¸²à¸£",
        "à¸Ĺà¸³"
      ],
      [
        "à¸ªà¸³",
        "à¸£à¸Ńà¸ĩ"
      ],
      [
        "à¸ĸà¸²à¸¡",
        "à¸ģà¸¥"
      ],
      [
        "à¸¡à¸Ī",
        "à¸²à¸ģ"
      ],
      [
        "à¸Īà¸³",
        "à¹Ģà¸Ľ"
      ],
      [
        "à¸Ļà¸°",
        "à¸Ļà¸³"
      ],
      [
        "Ġà¸Ńà¸¢",
        "à¸²à¸ģ"
      ],
      [
        "Ġà¸",
        "ª"
      ],
      [
        "x",
        "t"
      ],
      [
        "à¸",
        "ĺ"
      ],
      [
        "à¸¥",
        "à¸ĩ"
      ],
      [
        "c",
        "o"
      ],
      [
        "Ġ",
        "a"
      ],
      [
        "Ġ",
        "1"
      ],
      [
        "Ġ",
        "|"
      ],
      [
        "ite",
        "m"
      ],
      [
        "m",
        "e"
      ],
      [
        "à¸ķ",
        "à¸£"
      ],
      [
        "à¸łà¸²à¸©",
        "à¸²"
      ],
      [
        "à¸²à¸",
        "°"
      ],
      [
        "à¸Ļ",
        "à¸"
      ],
      [
        "Ġde",
        "b"
      ],
      [
        "r",
        "or"
      ],
      [
        "Ħ",
        "à¸£"
      ],
      [
        "Ġas",
        "s"
      ],
      [
        "à¹Ģà¸«",
        "à¸ķ"
      ],
      [
        "g",
        "g"
      ],
      [
        "en",
        "d"
      ],
      [
        "à¹Ģà¸",
        "Ħà¸£"
      ],
      [
        "Ġà¹Ģà¸",
        "Ĭ"
      ],
      [
        "gg",
        "ing"
      ],
      [
        "f",
        "a"
      ],
      [
        "Ġà¸",
        "ĩ"
      ],
      [
        "a",
        "th"
      ],
      [
        "à¸Ľ",
        "à¸¥à¸ĩ"
      ],
      [
        "an",
        "t"
      ],
      [
        "à¸Ķ",
        "à¸¢"
      ],
      [
        "à¸Ń",
        "à¹Ģà¸"
      ],
      [
        "à¸Ļ",
        "à¸¡"
      ],
      [
        "à¸Ńà¸ĩ",
        "à¸¡"
      ],
      [
        "Ġà¸ª",
        "à¸³"
      ],
      [
        "à¹ĥ",
        "à¸Ļ"
      ],
      [
        "Ġà¸ŀ",
        "à¸£"
      ],
      [
        "e",
        "s"
      ],
      [
        "u",
        "gging"
      ],
      [
        "Ġdeb",
        "ugging"
      ],
      [
        "à¸ķ",
        "à¹Ĥ"
      ],
      [
        "à¸ĩà¸²à¸Ļ",
        "à¸Ń"
      ],
      [
        "ist",
        "ant"
      ],
      [
        "Ġass",
        "istant"
      ],
      [
        "Ġà¸ĩ",
        "à¸²à¸Ļ"
      ],
      [
        "à¸ķà¹Ĥ",
        "à¸Ļà¸¡"
      ],
      [
        "Ġ",
        "e"
      ],
      [
        "Ġ",
        "n"
      ],
      [
        "Ġà¸ªà¸³",
        "à¸«à¸£"
      ],
      [
        "Ġ",
        "à¹ģà¸¥à¸°"
      ],
      [
        "à¹Ħ",
        "à¸¡"
      ],
      [
        "Ġ",
        "o"
      ],
      [
        "e",
        "d"
      ],
      [
        "Ġà¸",
        "Ĭ"
      ],
      [
        "à¸§",
        "à¸²à¸¡"
      ],
      [
        "un",
        "c"
      ],
      [
        "l",
        "o"
      ],
      [
        "o",
        "t"
      ],
      [
        "Ġ",
        "m"
      ],
      [
        "Ġf",
        "or"
      ],
      [
        "Ġ",
        "\""
      ],
      [
        "à¹Ģà¸",
        "Ĥ"
      ],
      [
        "Ġre",
        "turn"
      ],
      [
        "à¸Ħà¸³",
        "à¸Ńà¸ĺ"
      ],
      [
        "f",
        "or"
      ],
      [
        "l",
        "e"
      ],
      [
        "Ġà¸«",
        "à¸£"
      ],
      [
        "a",
        "r"
      ],
      [
        "Ġl",
        "o"
      ],
      [
        "Ġ",
        "à¸Ńà¸ĺ"
      ],
      [
        "Ġ",
        "d"
      ],
      [
        "er",
        "ror"
      ],
      [
        "Ġp",
        "ip"
      ],
      [
        "Ġ",
        "w"
      ],
      [
        "e",
        "u"
      ],
      [
        "Ġà¸",
        "Ĥ"
      ],
      [
        "c",
        "e"
      ],
      [
        "à¹Ģà¸",
        "Ķ"
      ],
      [
        "co",
        "de"
      ],
      [
        "e",
        "fa"
      ],
      [
        "u",
        "s"
      ],
      [
        "à¸²à¸Ļ",
        "à¸ĩ"
      ],
      [
        "à¸²à¸ĩ",
        "à¸Ļ"
      ],
      [
        "à¸Ńà¸ĩà¸ģà¸²à¸£",
        "à¸ķ"
      ],
      [
        "Ġpip",
        "efa"
      ],
      [
        "eu",
        "o"
      ],
      [
        "Ġpipefa",
        "il"
      ],
      [
        "Ġ",
        "à¸Ļ"
      ],
      [
        "Ġ",
        "à¹ģà¸¥"
      ],
      [
        "Ġà¹Ĥ",
        "à¸Ķà¸¢"
      ],
      [
        "Ġà¸",
        "Ī"
      ],
      [
        "Ġ",
        "à¹ĥà¸«"
      ],
      [
        "à¸ļ",
        "à¸ľ"
      ],
      [
        "à¹Ģà¸",
        "¥"
      ],
      [
        "à¸³",
        "à¸¥"
      ],
      [
        "m",
        "p"
      ],
      [
        "à¹Ĥ",
        "à¸Łà¸¥"
      ],
      [
        "à¹Ģà¸Ķ",
        "à¸Ńà¸£"
      ],
      [
        "à¹Ĥà¸Łà¸¥",
        "à¹Ģà¸Ķà¸Ńà¸£"
      ],
      [
        "r",
        "on"
      ],
      [
        "unc",
        "tion"
      ],
      [
        "t",
        "r"
      ],
      [
        "c",
        "al"
      ],
      [
        "i",
        "t"
      ],
      [
        "à¸",
        "¶"
      ],
      [
        "à¸«",
        "à¸¥"
      ],
      [
        "Ġ",
        "v"
      ],
      [
        "Ġc",
        "on"
      ],
      [
        "u",
        "p"
      ],
      [
        "u",
        "m"
      ],
      [
        "Ġ",
        "item"
      ],
      [
        "c",
        "t"
      ],
      [
        "r",
        "an"
      ],
      [
        "Ġ",
        "error"
      ],
      [
        "à¹Ħ",
        "à¸Ĥ"
      ],
      [
        "à¸",
        "©"
      ],
      [
        "à¸Ńà¸",
        "Ĺ"
      ],
      [
        "Ġ",
        "'"
      ],
      [
        "à¹ģ",
        "à¸ģ"
      ],
      [
        "Ġf",
        "unction"
      ],
      [
        "à¸ªà¸³",
        "à¸«à¸£"
      ],
      [
        "c",
        "h"
      ],
      [
        "à¸ģ",
        "à¸©"
      ],
      [
        "P",
        "I"
      ],
      [
        "Ġ",
        "à¹Ģà¸£"
      ],
      [
        "à¸²",
        "à¹Ģà¸"
      ],
      [
        "à¸²",
        "à¹Ģà¸«à¸ķ"
      ],
      [
        "ĠA",
        "PI"
      ],
      [
        "à¸Ń",
        "à¸Ńà¸°à¹Ħà¸£"
      ],
      [
        "à¸²à¸",
        "Ĺ"
      ],
      [
        "Ġà¸",
        "ĸ"
      ],
      [
        "à¸ļ",
        "à¹Ħà¸Łà¸¥"
      ],
      [
        "à¸ĩ",
        "à¹Ĥà¸Łà¸¥à¹Ģà¸Ķà¸Ńà¸£"
      ],
      [
        "in",
        "u"
      ],
      [
        "Ġà¸ľ",
        "à¸¡"
      ],
      [
        "Ġà¹ģ",
        "à¸ķ"
      ],
      [
        "à¹Ħà¸Ľ",
        "à¸¢"
      ],
      [
        "à¸£à¸°",
        "à¸ļ"
      ],
      [
        "à¸ģà¸©",
        "à¸²à¸"
      ],
      [
        "o",
        "un"
      ],
      [
        "à¸Ļ",
        "à¸§"
      ],
      [
        "à¸²à¸",
        "Ħ"
      ],
      [
        "à¸ķà¸£",
        "à¸ĩ"
      ],
      [
        "à¸¥",
        "à¸Ńà¸ģ"
      ],
      [
        "à¸·",
        "à¹ī"
      ],
      [
        "à¸ĩà¸²à¸Ļ",
        "à¸ģ"
      ],
      [
        "a",
        "me"
      ],
      [
        "r",
        "o"
      ],
      [
        "à¸Ńà¸",
        "ª"
      ],
      [
        "à¹Ģà¸",
        "¢"
      ],
      [
        "for",
        "m"
      ],
      [
        "Ġà¸Ĥ",
        "à¸Ń"
      ],
      [
        "a",
        "i"
      ],
      [
        "à¹Ģà¸",
        "ª"
      ],
      [
        "à¹Ģà¸",
        "ķ"
      ],
      [
        "à¸Ķ",
        "à¸Ħ"
      ],
      [
        "à¸²à¸°",
        "à¸Ĥ"
      ],
      [
        "Ġm",
        "ul"
      ],
      [
        "à¸²à¹Ģà¸",
        "Ĺ"
      ],
      [
        "Ġ",
        "à¹ģà¸ļà¸ļà¸ĩ"
      ],
      [
        "ī",
        "à¸ŀ"
      ],
      [
        "ļ",
        "à¸£"
      ],
      [
        "à¸£",
        "à¸Ļ"
      ],
      [
        "à¸Ļ",
        "à¹ģà¸¥à¸°"
      ],
      [
        "à¸Ļ",
        "à¸Ńà¸Ĺ"
      ],
      [
        "à¸Ļ",
        "à¸²à¹Ģà¸Ĺ"
      ],
      [
        "à¸ļ",
        "à¸łà¸²à¸©à¸²"
      ],
      [
        "à¹Ģà¸",
        "ĩ"
      ],
      [
        "à¸¥",
        "à¸Īà¸³à¹Ģà¸Ľ"
      ],
      [
        "à¸ģ",
        "à¸Ļ"
      ],
      [
        "à¹ģ",
        "à¸Ļà¸°à¸Ļà¸³"
      ],
      [
        "à¹ģ",
        "à¸Ľà¸¥à¸ĩ"
      ],
      [
        "à¹Ħ",
        "à¸§"
      ],
      [
        "à¸¡",
        "à¸Ń"
      ],
      [
        "à¸Ķ",
        "à¸§"
      ],
      [
        "à¸Ķ",
        "à¸¥à¸Ńà¸ģ"
      ],
      [
        "à¸Ńà¸ĩ",
        "à¸ļà¸Ĺ"
      ],
      [
        "à¸°",
        "à¹Ģà¸£"
      ],
      [
        "à¸ª",
        "à¸Ļà¸Ĺ"
      ],
      [
        "à¸²à¸¢",
        "à¸ģ"
      ],
      [
        "à¸²à¸¢",
        "à¸£à¸Ńà¸ļ"
      ],
      [
        "à¸Ńà¸¢",
        "à¸ĸà¸²à¸¡à¸ģà¸¥"
      ],
      [
        "à¸²à¸ĩ",
        "à¸ķ"
      ],
      [
        "à¸²à¸ĩ",
        "à¹Ģà¸¥"
      ],
      [
        "à¸²à¸ĩ",
        "à¸«à¸¥"
      ],
      [
        "à¸ģà¸²à¸£",
        "à¸£"
      ],
      [
        "à¹ģà¸¥à¸°",
        "à¸ĸà¸²à¸¡à¸ģà¸¥"
      ],
      [
        "Ġc",
        "ron"
      ],
      [
        "à¸Ńà¸ĩà¸ģà¸²à¸£",
        "à¹ĥà¸Ĭ"
      ],
      [
        "à¸Ńà¸ĩà¸ģà¸²à¸£",
        "à¹Ģà¸Ĥ"
      ],
      [
        "à¸ĩà¸²à¸Ļ",
        "à¸Ĺ"
      ],
      [
        "à¸Ńà¸¡",
        "à¸ķ"
      ],
      [
        "ĠL",
        "inu"
      ],
      [
        "Ġà¸ľ",
        "à¸¡à¸Ī"
      ],
      [
        "à¸Ńà¸Ļ",
        "à¹Ħà¸Ĥ"
      ],
      [
        "à¸Ńà¸Ļ",
        "à¸ģà¸²à¸£à¸£"
      ],
      [
        "à¸¢à¸Ļ",
        "à¸ªà¸Ħà¸£"
      ],
      [
        "à¸§à¸¢",
        "à¸£à¸°à¸ļ"
      ],
      [
        "Ġà¹ģ",
        "à¸Ļà¸°à¸Ļà¸³"
      ],
      [
        "à¸Ńà¸°",
        "à¸«à¸£"
      ],
      [
        "à¸Ħà¸³",
        "à¸ĸà¸²à¸¡"
      ],
      [
        "à¸ļà¸Ĺ",
        "à¹ģà¸¥à¸°à¸ĸà¸²à¸¡à¸ģà¸¥"
      ],
      [
        "à¸ļà¹Ģà¸",
        "Ĺ"
      ],
      [
        "à¸ļà¹Ģà¸",
        "īà¸ŀ"
      ],
      [
        "à¸Ńà¸ĩà¸ģà¸²à¸£à¸Ĺà¸³",
        "à¸Ħ"
      ],
      [
        "à¸Ńà¸ĩà¸ģà¸²à¸£à¸Ĺà¸³",
        "à¸ĩà¸²à¸Ļà¸ģ"
      ],
      [
        "à¸ªà¸³à¸£à¸Ńà¸ĩ",
        "à¹Ħà¸Łà¸¥"
      ],
      [
        "à¸¡à¸Īà¸²à¸ģ",
        "à¸Ħà¸³à¸ĸà¸²à¸¡"
      ],
      [
        "Ġà¸Ńà¸¢à¸²à¸ģ",
        "à¹Ħà¸Ķ"
      ],
      [
        "Ġà¸Ńà¸¢à¸²à¸ģ",
        "à¸ªà¸³à¸£à¸Ńà¸ĩà¹Ħà¸Łà¸¥"
      ],
      [
        "à¸Ńà¹Ģà¸",
        "Ĭ"
      ],
      [
        "à¹ĥà¸Ļ",
        "à¹Ģà¸Ħà¸£"
      ],
      [
        "Ġà¹ģà¸¥à¸°",
        "à¸ĩà¸²à¸Ļà¸Ĺ"
      ],
      [
        "Ġà¹Ĥà¸Ķà¸¢",
        "à¹ĥà¸«"
      ],
      [
        "Ġà¸Ī",
        "à¸³à¸¥"
      ],
      [
        "Ġà¸ľà¸¡",
        "à¹ģà¸Ļà¸°à¸Ļà¸³"
      ],
      [
        "à¸ģà¸©à¸²à¸",
        "ļà¸£"
      ],
      [
        "à¸Ńà¸ª",
        "à¸Ńà¸Ļà¸ģà¸²à¸£à¸£"
      ],
      [
        "à¹Ģà¸¢",
        "à¸Ńà¸°à¸«à¸£"
      ],
      [
        "Ġà¸Ĥà¸Ń",
        "à¹ģà¸ļà¸ļà¸ĩ"
      ],
      [
        "à¹Ģà¸ª",
        "à¸Ļà¸Ńà¸Ĺ"
      ],
      [
        "Ġmul",
        "ti"
      ],
      [
        "à¸Ļà¹ģà¸¥à¸°",
        "à¹Ģà¸ªà¸Ļà¸Ńà¸Ĺ"
      ],
      [
        "à¸Ļà¸²à¹Ģà¸Ĺ",
        "à¸£à¸Ļ"
      ],
      [
        "à¸ļà¸łà¸²à¸©à¸²",
        "à¸Ńà¸°à¹Ħà¸£"
      ],
      [
        "à¸Ķà¸¥à¸Ńà¸ģ",
        "à¹Ħà¸Łà¸¥"
      ],
      [
        "à¸Ńà¸ĩà¸ļà¸Ĺ",
        "à¸ªà¸Ļà¸Ĺ"
      ],
      [
        "à¸²à¸¢à¸£à¸Ńà¸ļ",
        "à¹Ģà¸ŀ"
      ],
      [
        "à¸²à¸ĩà¸«à¸¥",
        "à¸²à¸¢à¸£à¸Ńà¸ļà¹Ģà¸ŀ"
      ],
      [
        "ĠLinu",
        "x"
      ],
      [
        "Ġà¸ľà¸¡à¸Ī",
        "à¸°à¹Ģà¸£"
      ],
      [
        "à¸Ńà¸Ļà¹Ħà¸Ĥ",
        "à¹Ģà¸¢à¸Ńà¸°à¸«à¸£"
      ],
      [
        "à¸ļà¹Ģà¸īà¸ŀ",
        "à¸²à¸°à¸Ĥ"
      ],
      [
        "à¸¡à¸Īà¸²à¸ģà¸Ħà¸³à¸ĸà¸²à¸¡",
        "à¸ģà¸§"
      ],
      [
        "Ġà¸Īà¸³à¸¥",
        "à¸Ńà¸ĩà¸ļà¸Ĺà¸ªà¸Ļà¸Ĺ"
      ],
      [
        "à¸Ļà¹ģà¸¥à¸°à¹Ģà¸ªà¸Ļà¸Ńà¸Ĺ",
        "à¸²à¸ĩà¹Ģà¸¥"
      ],
      [
        "Ġà¸Īà¸³à¸¥à¸Ńà¸ĩà¸ļà¸Ĺà¸ªà¸Ļà¸Ĺ",
        "à¸Ļà¸²à¹Ģà¸Ĺà¸£à¸Ļ"
      ],
      [
        "à¸«",
        "à¸¡"
      ],
      [
        "a",
        "t"
      ],
      [
        "Ġs",
        "et"
      ],
      [
        "an",
        "d"
      ],
      [
        "Ĳ",
        "à¸²à¸Ļ"
      ],
      [
        "à¸§",
        "à¸Ī"
      ],
      [
        "en",
        "t"
      ],
      [
        "à¸Ļà¸",
        "Ĳà¸²à¸Ļ"
      ],
      [
        "ot",
        "al"
      ],
      [
        "à¹Ĥ",
        "à¸Ħ"
      ],
      [
        "ul",
        "t"
      ],
      [
        "a",
        "c"
      ],
      [
        "'",
        ")"
      ],
      [
        "t",
        "xt"
      ],
      [
        "à¸ķ",
        "à¸Ńà¸ļ"
      ],
      [
        ")",
        ":"
      ],
      [
        "or",
        "t"
      ],
      [
        "d",
        "ing"
      ],
      [
        "Ġ",
        "2"
      ],
      [
        "te",
        "xt"
      ],
      [
        "g",
        "e"
      ],
      [
        "Ġ",
        "th"
      ],
      [
        "Ġb",
        "as"
      ],
      [
        "p",
        "y"
      ],
      [
        "à¸¥",
        "à¸¥"
      ],
      [
        "à¸ģ",
        "à¸£à¸°"
      ],
      [
        "à¸ŀ",
        "à¸ĺ"
      ],
      [
        "Ġt",
        "ran"
      ],
      [
        "Ġtran",
        "s"
      ],
      [
        "Ġà¹Ģà¸",
        "ŀ"
      ],
      [
        "an",
        "g"
      ],
      [
        "à¹Į",
        ":"
      ],
      [
        "de",
        "f"
      ],
      [
        "Ġtrans",
        "form"
      ],
      [
        "*",
        "*"
      ],
      [
        "ī",
        "à¸ļ"
      ],
      [
        "à¸Ń",
        "à¸Ńà¸ĺ"
      ],
      [
        "à¸§",
        "à¹Ģà¸ķ"
      ],
      [
        "à¸Ķ",
        "à¸«à¸£"
      ],
      [
        "à¹ģà¸¥à¸°",
        "à¸§"
      ],
      [
        "Ġ0",
        "1"
      ],
      [
        "Ġ0",
        "2"
      ],
      [
        "Ġ0",
        "3"
      ],
      [
        "Ġ0",
        "4"
      ],
      [
        "Ġ0",
        "5"
      ],
      [
        "à¸Ńà¸¡",
        "à¸ŀ"
      ],
      [
        "à¹ģà¸ļà¸ļ",
        "à¸ģà¸£à¸°"
      ],
      [
        "à¸ľ",
        "à¸¥à¸¥"
      ],
      [
        "à¸ļà¸²à¸¢",
        "à¸łà¸²à¸©"
      ],
      [
        "Ġt",
        "otal"
      ],
      [
        "à¸ļà¸²à¸¢à¸ª",
        "à¸²à¹Ģà¸«à¸ķ"
      ],
      [
        "à¸Ļà¸",
        "īà¸ļ"
      ],
      [
        "Ġà¸ĩà¸²à¸Ļ",
        "à¹ģà¸Ľà¸¥à¸ĩ"
      ],
      [
        "à¸²à¸Ħ",
        "à¸Ńà¸¡à¸ŀ"
      ],
      [
        "à¸«à¸¡",
        "à¸²à¸¢"
      ],
      [
        "Ġbas",
        "h"
      ],
      [
        "à¸§à¹Ģà¸ķ",
        "à¸Ńà¸£"
      ],
      [
        "à¹ģà¸ļà¸ļà¸ģà¸£à¸°",
        "à¸Ĭ"
      ],
      [
        "à¸ļà¸²à¸¢à¸łà¸²à¸©",
        "à¸²à¸Ħà¸Ńà¸¡à¸ŀ"
      ],
      [
        "Ġà¸ĩà¸²à¸Ļà¹ģà¸Ľà¸¥à¸ĩ",
        "à¹Ĥà¸Ħ"
      ],
      [
        "Ġ0",
        "0"
      ],
      [
        "à¸²à¸",
        "Ķ"
      ],
      [
        "Ġ",
        "+"
      ],
      [
        "à¸Ļ",
        "à¸ª"
      ],
      [
        "Ġ",
        "à¹ĥà¸Ĭ"
      ],
      [
        "à¸Ķ",
        "à¸ķ"
      ],
      [
        "à¹Ģ",
        "à¸Ļ"
      ],
      [
        "à¸ĩ",
        "à¸¡"
      ],
      [
        "Ġ0",
        "6"
      ],
      [
        "i",
        "mp"
      ],
      [
        "à¹Ħ",
        "à¸Ľà¸ķ"
      ],
      [
        "ac",
        "k"
      ],
      [
        "a",
        "b"
      ],
      [
        "d",
        "i"
      ],
      [
        "m",
        "b"
      ],
      [
        "à¸¢",
        "à¸ļ"
      ],
      [
        "th",
        "er"
      ],
      [
        "en",
        "v"
      ],
      [
        "Ġp",
        "ython"
      ],
      [
        "Ġà¹ģ",
        "à¸Ľà¸¥à¸ĩ"
      ],
      [
        "imp",
        "ort"
      ],
      [
        "à¸¥",
        "à¸²à¸Ķ"
      ],
      [
        "Ġà¹Ĥ",
        "à¸Ħ"
      ],
      [
        "Ġd",
        "o"
      ],
      [
        "Ġ",
        "8"
      ],
      [
        "à¸¡",
        "à¸§"
      ],
      [
        "à¸¡",
        "à¸²à¸°"
      ],
      [
        "à¸¢",
        "à¸ģ"
      ],
      [
        "à¹Ģà¸«",
        "à¸¡à¸²à¸°"
      ],
      [
        "(",
        ")"
      ],
      [
        "a",
        "tion"
      ],
      [
        "à¸Ńà¸",
        "Ĭ"
      ],
      [
        "à¹ģ",
        "à¸Ļà¸§"
      ],
      [
        "à¸Ķ",
        "à¸ŀ"
      ],
      [
        "à¸Ńà¹Ģà¸",
        "ª"
      ],
      [
        "à¸§à¸²à¸¡",
        "à¸ľ"
      ],
      [
        "ang",
        "ua"
      ],
      [
        "à¹Ģà¸«à¸¡à¸²à¸°",
        "à¸ģ"
      ],
      [
        "à¸Ķà¸ŀ",
        "à¸¥à¸²à¸Ķ"
      ],
      [
        "à¸±",
        "à¹Ī"
      ],
      [
        "de",
        "d"
      ],
      [
        "ack",
        "up"
      ],
      [
        "o",
        "ur"
      ],
      [
        ".",
        "."
      ],
      [
        "er",
        "s"
      ],
      [
        "Ġo",
        "ther"
      ],
      [
        "g",
        "es"
      ],
      [
        "angua",
        "ges"
      ],
      [
        "!",
        "/"
      ],
      [
        "#",
        "!/"
      ],
      [
        "-",
        "\\"
      ],
      [
        "a",
        "y"
      ],
      [
        "b",
        "in"
      ],
      [
        "g",
        "ame"
      ],
      [
        "l",
        "anguages"
      ],
      [
        "p",
        "ath"
      ],
      [
        "s",
        "cript"
      ],
      [
        "s",
        "et"
      ],
      [
        "}",
        "-\\"
      ],
      [
        "à¸",
        "ı"
      ],
      [
        "à¸²",
        "à¹ģà¸¥à¸°"
      ],
      [
        "à¸Ń",
        "à¹Ħà¸Ķ"
      ],
      [
        "à¸Ń",
        "à¸Ńà¸ģ"
      ],
      [
        "à¸£",
        "à¸ĩà¸¡"
      ],
      [
        "à¸ļ",
        "à¸ĩà¸²à¸Ļ"
      ],
      [
        "à¸ļ",
        "à¸ĩà¸²à¸Ļà¸Ń"
      ],
      [
        "à¸ķ",
        "à¸¥"
      ],
      [
        "à¸¥",
        "à¸Ķà¸Ħ"
      ],
      [
        "à¸§",
        "à¸£"
      ],
      [
        "à¹Ħ",
        "à¸ķà¸¥"
      ],
      [
        "à¸¡",
        "à¸ªà¸³à¸«à¸£"
      ],
      [
        "à¸Ķ",
        "à¸Ĥ"
      ],
      [
        "à¸Ķ",
        "à¸łà¸²à¸©à¸²"
      ],
      [
        "à¸²à¸¢",
        "à¹ģà¸¥à¸°"
      ],
      [
        "à¸Ľ",
        "à¸ı"
      ],
      [
        "à¹ģà¸¥à¸°",
        "à¹Ģà¸Ħà¸£"
      ],
      [
        "à¸Ńà¸ĩà¸ģà¸²à¸£",
        "à¸ªà¸Ħà¸£"
      ],
      [
        "à¸¸",
        ":"
      ],
      [
        "à¸ĩà¸²à¸Ļ",
        "à¸ķà¸£à¸ĩ"
      ],
      [
        "à¸Ńà¸¡",
        "à¹ģà¸Ļà¸§"
      ],
      [
        "à¹ģà¸ļà¸ļ",
        "à¹ĥà¸«"
      ],
      [
        "Ġscript",
        "ing"
      ],
      [
        "à¸§à¸¢",
        "à¸¥à¸Ķà¸Ħ"
      ],
      [
        "Ġl",
        "ua"
      ],
      [
        "à¸Ļà¸³",
        "à¹Ħà¸Ľ"
      ],
      [
        "Ġà¸«",
        "à¸¡à¸§"
      ],
      [
        "Ġco",
        "ding"
      ],
      [
        "Ġe",
        "mb"
      ],
      [
        "ed",
        "ded"
      ],
      [
        "us",
        "r"
      ],
      [
        "à¸«à¸¡à¸²à¸¢",
        "à¹Ģà¸«à¸ķ"
      ],
      [
        "à¸Ļà¸ª",
        "à¹Ħà¸ķà¸¥"
      ],
      [
        "à¹Ħà¸Ľà¸ķ",
        "à¸£à¸ĩà¸¡"
      ],
      [
        "à¸¢à¸ļ",
        "à¸ĩ"
      ],
      [
        "à¸Ńà¹Ģà¸ª",
        "à¸£"
      ],
      [
        "à¸Ķà¸ŀà¸¥à¸²à¸Ķ",
        "à¸ŀ"
      ],
      [
        "our",
        "ce"
      ],
      [
        "à¸²à¹ģà¸¥à¸°",
        "à¸Ń"
      ],
      [
        "à¸Ńà¸Ńà¸ģ",
        "à¹ģà¸ļà¸ļà¹ĥà¸«"
      ],
      [
        "à¸Ķà¸łà¸²à¸©à¸²",
        "à¹ģà¸¥à¸°à¹Ģà¸Ħà¸£"
      ],
      [
        "à¸²à¸¢à¹ģà¸¥à¸°",
        "à¸Ļà¸³à¹Ħà¸Ľ"
      ],
      [
        "à¸ĩà¸²à¸Ļà¸ķà¸£à¸ĩ",
        "à¹Ħà¸Ľà¸ķà¸£à¸ĩà¸¡"
      ],
      [
        "à¸Ńà¸¡à¹ģà¸Ļà¸§",
        "à¸Ľà¸ı"
      ],
      [
        "à¸§à¸¢à¸¥à¸Ķà¸Ħ",
        "à¸§à¸²à¸¡à¸ľ"
      ],
      [
        "Ġà¸«à¸¡à¸§",
        "à¸Ķà¸łà¸²à¸©à¸²à¹ģà¸¥à¸°à¹Ģà¸Ħà¸£"
      ],
      [
        "Ġemb",
        "edded"
      ],
      [
        "à¸²à¸¢à¹ģà¸¥à¸°à¸Ļà¸³à¹Ħà¸Ľ",
        "à¹ĥà¸Ĭ"
      ],
      [
        "à¸ĩà¸²à¸Ļà¸ķà¸£à¸ĩà¹Ħà¸Ľà¸ķà¸£à¸ĩà¸¡",
        "à¸²à¹ģà¸¥à¸°à¸Ń"
      ],
      [
        "i",
        "f"
      ],
      [
        "p",
        "e"
      ],
      [
        "Ġ",
        "end"
      ],
      [
        "Ġ",
        "3"
      ],
      [
        "r",
        "s"
      ],
      [
        "ge",
        "x"
      ],
      [
        "in",
        "t"
      ],
      [
        "Ġs",
        "um"
      ],
      [
        "à¸Ľ",
        "à¸£"
      ],
      [
        "à¸ķà¸£",
        "à¸§à¸Ī"
      ],
      [
        "Ġlo",
        "cal"
      ],
      [
        "ab",
        "le"
      ],
      [
        "a",
        "d"
      ],
      [
        "k",
        "e"
      ],
      [
        "Ġ",
        "T"
      ],
      [
        "Ġre",
        "s"
      ],
      [
        "u",
        "t"
      ],
      [
        "Ġ",
        "5"
      ],
      [
        "il",
        "e"
      ],
      [
        "-",
        "-"
      ],
      [
        "Q",
        "L"
      ],
      [
        "à¹Ħ",
        "à¸Ĺ"
      ],
      [
        "à¹Ħà¸Ĺ",
        "à¸¢"
      ],
      [
        "Ġ",
        "7"
      ],
      [
        "s",
        "h"
      ],
      [
        "Ġ",
        "4"
      ],
      [
        "à¸«",
        "à¸Ļ"
      ],
      [
        "Ġs",
        "tr"
      ],
      [
        "Ġp",
        "ath"
      ],
      [
        "p",
        "p"
      ],
      [
        "oun",
        "d"
      ],
      [
        "à¸Ńà¸",
        "Ħ"
      ],
      [
        "Ġà¸Ħ",
        "à¸§à¸£"
      ],
      [
        "D",
        "E"
      ],
      [
        "a",
        "ll"
      ],
      [
        "m",
        "m"
      ],
      [
        "Ġ",
        "g"
      ],
      [
        "à¸ģ",
        "à¸³"
      ],
      [
        "à¸Ńà¸Ħ",
        "à¸§à¸²à¸¡"
      ],
      [
        "(",
        "'"
      ],
      [
        "u",
        "e"
      ],
      [
        "Ġ",
        "6"
      ],
      [
        "lo",
        "cal"
      ],
      [
        "Ġ",
        "is"
      ],
      [
        "0",
        "8"
      ],
      [
        "P",
        "ython"
      ],
      [
        "Y",
        "Y"
      ],
      [
        "s",
        "ource"
      ],
      [
        "à¸§",
        "à¹ģ"
      ],
      [
        "à¸²à¸£",
        "à¸²à¸ĩ"
      ],
      [
        "à¸Ħà¸³",
        "à¸ª"
      ],
      [
        "Ġco",
        "py"
      ],
      [
        "à¸ģà¸³",
        "à¸«à¸Ļ"
      ],
      [
        "à¸§à¹ģ",
        "à¸Ľà¸£"
      ],
      [
        "à¹Ģà¸",
        "ģ"
      ],
      [
        "à¸ĩ",
        "à¸ģ"
      ],
      [
        "Ġt",
        "o"
      ],
      [
        "Ġw",
        "or"
      ],
      [
        "0",
        "0"
      ],
      [
        "Ġ",
        "and"
      ],
      [
        "à¸¹",
        "à¹Ī"
      ],
      [
        "Ġà¹Ģà¸",
        "Ľ"
      ],
      [
        "Ġd",
        "i"
      ],
      [
        "Ġitem",
        "s"
      ],
      [
        "ro",
        "m"
      ],
      [
        "e",
        "l"
      ],
      [
        "y",
        "pe"
      ],
      [
        "Ġ",
        "or"
      ],
      [
        "on",
        "e"
      ],
      [
        "item",
        "s"
      ],
      [
        "Ġn",
        "il"
      ],
      [
        "ch",
        "o"
      ],
      [
        "ke",
        "y"
      ],
      [
        "Ġres",
        "ult"
      ],
      [
        "Ġ",
        "un"
      ],
      [
        "ai",
        "rs"
      ],
      [
        "s",
        "e"
      ],
      [
        "v",
        "ers"
      ],
      [
        "Ġ",
        "B"
      ],
      [
        "Ġc",
        "h"
      ],
      [
        "#",
        "#"
      ],
      [
        "a",
        "te"
      ],
      [
        "b",
        "l"
      ],
      [
        "Ġ",
        "â"
      ],
      [
        "à¸Ī",
        "à¸²à¸ģ"
      ],
      [
        "de",
        "r"
      ],
      [
        "q",
        "u"
      ],
      [
        "à¸ķ",
        "à¸²à¸£à¸²à¸ĩ"
      ],
      [
        "Ġco",
        "mm"
      ],
      [
        "E",
        "r"
      ],
      [
        "Ġà¸",
        "łà¸²à¸©"
      ],
      [
        "à¸²à¸£",
        "à¸ķà¸Ńà¸ļ"
      ],
      [
        "à¹Ĥ",
        "à¸ķ"
      ],
      [
        "à¸²à¸ģ",
        "à¸²à¸£à¸ķà¸Ńà¸ļ"
      ],
      [
        "lo",
        "g"
      ],
      [
        "Ġcon",
        "vers"
      ],
      [
        "Ġth",
        "e"
      ],
      [
        "à¸²à¸ģà¸²à¸£à¸ķà¸Ńà¸ļ",
        "à¹Ĥà¸ķ"
      ],
      [
        "i",
        "g"
      ],
      [
        "Ġ",
        "F"
      ],
      [
        "à¸²",
        "à¹Ħà¸Ĺà¸¢"
      ],
      [
        "à¸¥",
        "à¸łà¸²à¸©"
      ],
      [
        "Ġp",
        "r"
      ],
      [
        "à¸ķà¸Ńà¸ļ",
        "à¹ģà¸ļà¸ļ"
      ],
      [
        "Ġà¸łà¸²à¸©",
        "à¸²à¹Ħà¸Ĺà¸¢"
      ],
      [
        "Ġconvers",
        "ation"
      ],
      [
        "à¸¥à¸łà¸²à¸©",
        "à¸²à¸ģà¸²à¸£à¸ķà¸Ńà¸ļà¹Ĥà¸ķ"
      ],
      [
        "à¸ģ",
        "à¸ķ"
      ],
      [
        "à¸ĩ",
        "à¹Ħà¸¡"
      ],
      [
        "à¹Ĥ",
        "à¸Ķà¸¢"
      ],
      [
        "E",
        "RE"
      ],
      [
        "H",
        "ERE"
      ],
      [
        "W",
        "HERE"
      ],
      [
        "l",
        "i"
      ],
      [
        "}",
        "$"
      ],
      [
        "à¸ĩ",
        "à¸ª"
      ],
      [
        "LE",
        "CT"
      ],
      [
        "Ġe",
        "cho"
      ],
      [
        "Ġ\"",
        "$"
      ],
      [
        "Ġlo",
        "g"
      ],
      [
        "ĠB",
        "Y"
      ],
      [
        "Er",
        "ror"
      ],
      [
        "Ġpr",
        "int"
      ],
      [
        "e",
        "p"
      ],
      [
        "ĠS",
        "QL"
      ],
      [
        "f",
        "rom"
      ],
      [
        "Ġ",
        "y"
      ],
      [
        "Ġin",
        "t"
      ],
      [
        "Ġo",
        "p"
      ],
      [
        "'",
        ","
      ],
      [
        "R",
        "O"
      ],
      [
        "m",
        "ent"
      ],
      [
        "Ġ",
        "_"
      ],
      [
        "Ġ",
        "import"
      ],
      [
        "Ģ",
        "Ķ"
      ],
      [
        "Ġb",
        "ackup"
      ],
      [
        "o",
        "d"
      ],
      [
        "u",
        "ti"
      ],
      [
        "Ġ",
        "à¹ģà¸ļà¸ļ"
      ],
      [
        "Ġw",
        "i"
      ],
      [
        "Ġâ",
        "ĢĶ"
      ],
      [
        "R",
        "e"
      ],
      [
        "a",
        "pp"
      ],
      [
        "s",
        "i"
      ],
      [
        "Ġ",
        "I"
      ],
      [
        "Ġ",
        "if"
      ],
      [
        "h",
        "ai"
      ],
      [
        "o",
        "p"
      ],
      [
        "o",
        "u"
      ],
      [
        "Ġ",
        "["
      ],
      [
        "à¸§",
        "à¸¡"
      ],
      [
        "..",
        "."
      ],
      [
        "E",
        "LECT"
      ],
      [
        "L",
        "ua"
      ],
      [
        "^",
        "\\"
      ],
      [
        "b",
        "ackup"
      ],
      [
        "m",
        "er"
      ],
      [
        "n",
        "um"
      ],
      [
        "t",
        "bl"
      ],
      [
        "Ġ",
        "."
      ],
      [
        "Ġ",
        "C"
      ],
      [
        "Ġ",
        "x"
      ],
      [
        "Ġ",
        "{"
      ],
      [
        "Ġ",
        "OR"
      ],
      [
        "Ġ",
        "WHERE"
      ],
      [
        "Ġ",
        "^\\"
      ],
      [
        "à¸Ń",
        "à¸²à¸"
      ],
      [
        "à¸Ń",
        "à¹Ħà¸¡"
      ],
      [
        "à¸£",
        "à¸§à¸Ī"
      ],
      [
        "ĠS",
        "ELECT"
      ],
      [
        "Ġà¸ķ",
        "à¸£à¸§à¸Ī"
      ],
      [
        "Ġco",
        "l"
      ],
      [
        "fa",
        "ult"
      ],
      [
        "Ġà¸Ħà¸§à¸£",
        "à¸ķà¸£à¸§à¸Ī"
      ],
      [
        "DE",
        "R"
      ],
      [
        "à¸ģà¸³à¸«à¸Ļ",
        "à¸Ķà¸Ħ"
      ],
      [
        "à¸§à¹ģà¸Ľà¸£",
        "à¸Ĺ"
      ],
      [
        "uti",
        "l"
      ],
      [
        "Ġwi",
        "th"
      ],
      [
        "ĠOR",
        "DER"
      ],
      [
        "o",
        "l"
      ],
      [
        "s",
        "on"
      ],
      [
        "à¸ļ",
        "à¸£"
      ],
      [
        "o",
        "k"
      ],
      [
        "s",
        "t"
      ],
      [
        "Ġ",
        "/"
      ],
      [
        "Ġ",
        "à¸Ń"
      ],
      [
        "Ġ",
        "ti"
      ],
      [
        "à¹Ģà¸",
        "¡"
      ],
      [
        ":",
        "-"
      ],
      [
        "a",
        "v"
      ],
      [
        "Ġ",
        "J"
      ],
      [
        "Ġ",
        "ip"
      ],
      [
        "Ġ",
        "**"
      ],
      [
        "à¸Ħ",
        "à¸§à¸²à¸¡"
      ],
      [
        "à¸Ī",
        "à¸£"
      ],
      [
        "ĠP",
        "ath"
      ],
      [
        "à¸Ĥ",
        "à¸Ńà¸ĩ"
      ],
      [
        "Ġre",
        "gex"
      ],
      [
        "co",
        "py"
      ],
      [
        "di",
        "r"
      ],
      [
        "--",
        "-"
      ],
      [
        "Ġwor",
        "d"
      ],
      [
        "RO",
        "M"
      ],
      [
        "Ġip",
        "airs"
      ],
      [
        "e",
        "c"
      ],
      [
        "t",
        "er"
      ],
      [
        "à¸",
        "ĵ"
      ],
      [
        "in",
        "d"
      ],
      [
        "Ġ",
        "text"
      ],
      [
        "Ġc",
        "le"
      ],
      [
        "l",
        "ist"
      ],
      [
        "Ġà¸",
        "§"
      ],
      [
        "Ġà¹ģ",
        "à¸ģ"
      ],
      [
        "*",
        "."
      ],
      [
        "=",
        "'"
      ],
      [
        "i",
        "ce"
      ],
      [
        "j",
        "son"
      ],
      [
        "l",
        "y"
      ],
      [
        "l",
        "as"
      ],
      [
        "l",
        "ay"
      ],
      [
        "m",
        "al"
      ],
      [
        "s",
        "v"
      ],
      [
        "Ġ",
        "=="
      ],
      [
        "Ġ",
        "en"
      ],
      [
        "Ġ",
        "key"
      ],
      [
        "OR",
        "T"
      ],
      [
        "re",
        "s"
      ],
      [
        "à¸¢à¸Ļ",
        "à¸Ł"
      ],
      [
        "ar",
        "i"
      ],
      [
        "à¹Ģà¸¥",
        "à¸Ĥ"
      ],
      [
        "Ġ2",
        "0"
      ],
      [
        "08",
        "0"
      ],
      [
        "Ġdi",
        "ct"
      ],
      [
        "num",
        "s"
      ],
      [
        "las",
        "s"
      ],
      [
        "a",
        "m"
      ],
      [
        "s",
        "tr"
      ],
      [
        "Ġ",
        "E"
      ],
      [
        "Ġ",
        "N"
      ],
      [
        "Ġ",
        "r"
      ],
      [
        "Ġs",
        "e"
      ],
      [
        "m",
        "is"
      ],
      [
        "Ġ",
        "h"
      ],
      [
        "à¸",
        "į"
      ],
      [
        "à¸ĩ",
        "à¸Ħ"
      ],
      [
        "à¸¡",
        "à¸ķ"
      ],
      [
        "à¸ª",
        "à¸²à¹Ģà¸«à¸ķ"
      ],
      [
        "Ġl",
        "ist"
      ],
      [
        "Ġn",
        "ot"
      ],
      [
        "Ġv",
        "ari"
      ],
      [
        "si",
        "on"
      ],
      [
        "à¸Ńà¸²à¸",
        "Ī"
      ],
      [
        "2",
        "6"
      ],
      [
        "al",
        "ue"
      ],
      [
        "Ġ1",
        "0"
      ],
      [
        "Ġcomm",
        "and"
      ],
      [
        "Ġy",
        "ou"
      ],
      [
        "ec",
        "tion"
      ],
      [
        "$",
        "{"
      ],
      [
        "i",
        "d"
      ],
      [
        "k",
        "dir"
      ],
      [
        "m",
        "kdir"
      ],
      [
        "Ġ",
        "me"
      ],
      [
        "Ġ",
        "à¹Ħà¸¡"
      ],
      [
        "à¸Ń",
        "à¹Ħà¸Łà¸¥"
      ],
      [
        "à¸£",
        "à¸§à¸¡"
      ],
      [
        "à¸ĩ",
        "à¸¥"
      ],
      [
        "à¸³",
        "à¸Ķ"
      ],
      [
        "à¸¡",
        "à¸²à¸ģ"
      ],
      [
        "in",
        "e"
      ],
      [
        "as",
        "t"
      ],
      [
        "Ġt",
        "able"
      ],
      [
        "Ġt",
        "ype"
      ],
      [
        "Ġà¸Ĥ",
        "à¸Ńà¸ĩ"
      ],
      [
        "mp",
        "t"
      ],
      [
        "Ġpath",
        "li"
      ],
      [
        "à¸Ńà¸Ħà¸§à¸²à¸¡",
        "à¸Ĺ"
      ],
      [
        "Ġ_",
        ","
      ],
      [
        "Ġvari",
        "able"
      ],
      [
        "Ġpathli",
        "b"
      ],
      [
        "0",
        "3"
      ],
      [
        "b",
        "j"
      ],
      [
        "Ġ",
        "à¸ģ"
      ],
      [
        "à¸£",
        "à¸¡"
      ],
      [
        "as",
        "e"
      ],
      [
        "Ġa",
        "r"
      ],
      [
        "ĠT",
        "hai"
      ],
      [
        "O",
        "P"
      ],
      [
        "e",
        "ct"
      ],
      [
        "t",
        "o"
      ],
      [
        "te",
        "d"
      ],
      [
        "Ġl",
        "ast"
      ],
      [
        "Ġa",
        "t"
      ],
      [
        "S",
        "QL"
      ],
      [
        "f",
        "ile"
      ],
      [
        "Ġ",
        "k"
      ],
      [
        "Ġ",
        "à¸ļ"
      ],
      [
        "Ġ",
        "à¹Ħà¸Ľ"
      ],
      [
        "Ġ",
        "us"
      ],
      [
        "Ġ",
        "DE"
      ],
      [
        "à¸²",
        "à¹Ģà¸£"
      ],
      [
        "à¸²",
        "à¹Ħà¸Ľ"
      ],
      [
        "à¸ģ",
        "à¹Ģà¸ģ"
      ],
      [
        "à¸ĩ",
        "à¹Ģà¸Ĥ"
      ],
      [
        "er",
        "t"
      ],
      [
        "re",
        "ct"
      ],
      [
        "Ġà¹ģà¸¥à¸°",
        "à¸ª"
      ],
      [
        "Ġo",
        "f"
      ],
      [
        "lo",
        "w"
      ],
      [
        "Ġcon",
        "t"
      ],
      [
        "Ġth",
        "en"
      ],
      [
        "à¸¢à¸ģ",
        "à¸ķ"
      ],
      [
        "à¸¢à¸ģ",
        "à¸ľ"
      ],
      [
        "à¸į",
        "à¸«"
      ],
      [
        ")",
        ";"
      ],
      [
        "P",
        "ORT"
      ],
      [
        "Z",
        "a"
      ],
      [
        "]",
        "+"
      ],
      [
        "]",
        "]"
      ],
      [
        "c",
        "sv"
      ],
      [
        "f",
        "i"
      ],
      [
        "k",
        "ing"
      ],
      [
        "r",
        "ite"
      ],
      [
        "Ġ",
        "*."
      ],
      [
        "à¸§",
        "à¹Ģà¸¥à¸Ĥ"
      ],
      [
        "à¸ĩ",
        "à¸Ļ"
      ],
      [
        "Ġs",
        "h"
      ],
      [
        "à¸²à¸Ļ",
        "à¹Ħà¸Łà¸¥"
      ],
      [
        "an",
        "ed"
      ],
      [
        "Ġre",
        "tr"
      ],
      [
        "Ġre",
        "ad"
      ],
      [
        "Ġde",
        "ep"
      ],
      [
        "Ġde",
        "lay"
      ],
      [
        "Ġà¸«",
        "à¸²"
      ],
      [
        "co",
        "ding"
      ],
      [
        "à¹ĥà¸Ļ",
        "à¸ķà¸²à¸£à¸²à¸ĩ"
      ],
      [
        "Ġn",
        "e"
      ],
      [
        "Ġv",
        "er"
      ],
      [
        "di",
        "ct"
      ],
      [
        "Ġ8",
        "080"
      ],
      [
        "ut",
        "f"
      ],
      [
        "Ġlog",
        "s"
      ],
      [
        "Ġop",
        "en"
      ],
      [
        "Ġà¸ķà¸£à¸§à¸Ī",
        "à¸§"
      ],
      [
        "Ġcle",
        "aned"
      ],
      [
        "Ġen",
        "coding"
      ],
      [
        "Ġse",
        "en"
      ],
      [
        "Ġc",
        "lass"
      ],
      [
        "ti",
        "c"
      ],
      [
        "Ġb",
        "ran"
      ],
      [
        "Ġo",
        "bj"
      ],
      [
        "ate",
        "d"
      ],
      [
        "Ġbran",
        "ch"
      ],
      [
        "e",
        "x"
      ],
      [
        "n",
        "ame"
      ],
      [
        "o",
        "ut"
      ],
      [
        "r",
        "ent"
      ],
      [
        "r",
        "ue"
      ],
      [
        "Ġ",
        "9"
      ],
      [
        "à¸Ń",
        "à¹Ģà¸Ľ"
      ],
      [
        "à¸Ļ",
        "à¸ģ"
      ],
      [
        "Ġà¸",
        "Ķ"
      ],
      [
        "Ġf",
        "i"
      ],
      [
        "Ġp",
        "er"
      ],
      [
        "lo",
        "se"
      ],
      [
        "qu",
        "i"
      ],
      [
        "N",
        "ot"
      ],
      [
        "g",
        "l"
      ],
      [
        "i",
        "ed"
      ],
      [
        "s",
        "up"
      ],
      [
        "Ġ",
        "à¸¥"
      ],
      [
        "Ġ",
        "..."
      ],
      [
        "à¹",
        "Ĩ"
      ],
      [
        "à¸ĩ",
        "à¸Ĺ"
      ],
      [
        "à¸ĩ",
        "à¹Ģà¸£"
      ],
      [
        "à¸Ľ",
        "à¹ģà¸ļà¸ļ"
      ],
      [
        "or",
        "y"
      ],
      [
        "de",
        "rs"
      ],
      [
        "de",
        "fault"
      ],
      [
        "Ġc",
        "ur"
      ],
      [
        "er",
        "v"
      ],
      [
        "is",
        "h"
      ],
      [
        "Ġa",
        "pp"
      ],
      [
        "Ġ1",
        "1"
      ],
      [
        "à¸łà¸²à¸©à¸²",
        "à¹Ħà¸Ĺà¸¢"
      ],
      [
        "Ġv",
        "alue"
      ],
      [
        "di",
        "tion"
      ],
      [
        "Ġdi",
        "rect"
      ],
      [
        "el",
        "d"
      ],
      [
        "Ġun",
        "b"
      ],
      [
        "Re",
        "gex"
      ],
      [
        "Ġ20",
        "26"
      ],
      [
        "Ġfi",
        "eld"
      ],
      [
        "Ġcur",
        "rent"
      ],
      [
        ")",
        ","
      ],
      [
        "D",
        "D"
      ],
      [
        "F",
        "ound"
      ],
      [
        "M",
        "M"
      ],
      [
        "N",
        "AM"
      ],
      [
        "P",
        "ath"
      ],
      [
        "S",
        "C"
      ],
      [
        "S",
        "hell"
      ],
      [
        "T",
        "rue"
      ],
      [
        "m",
        "od"
      ],
      [
        "n",
        "ied"
      ],
      [
        "o",
        "w"
      ],
      [
        "p",
        "or"
      ],
      [
        "v",
        "e"
      ],
      [
        "v",
        "er"
      ],
      [
        "}",
        "."
      ],
      [
        "Ġ",
        "YY"
      ],
      [
        "Ġ",
        "${"
      ],
      [
        "Ġ",
        "à¸£à¸§à¸¡"
      ],
      [
        "à¸Ń",
        "à¹Ģà¸£"
      ],
      [
        "à¸Ń",
        "à¹Ħà¸Ľ"
      ],
      [
        "à¸²à¸",
        "ĸ"
      ],
      [
        "à¸Ńà¸",
        "¥"
      ],
      [
        "à¸Ļ",
        "à¹Ħà¸Ķ"
      ],
      [
        "à¸Ļ",
        "à¸Ħà¸³à¸Ńà¸ĺ"
      ],
      [
        "à¸ļ",
        "à¸§"
      ],
      [
        "à¸ļ",
        "à¸Ķ"
      ],
      [
        "à¸¥",
        "à¹ĥà¸«"
      ],
      [
        "à¸ģ",
        "à¸ģ"
      ],
      [
        "à¸ģ",
        "à¸£à¸Ńà¸ĩ"
      ],
      [
        "à¸ģ",
        "à¸ģà¸³à¸«à¸Ļ"
      ],
      [
        "à¸§",
        "à¹Ģà¸£"
      ],
      [
        "à¸´",
        "à¹Į"
      ],
      [
        "à¸ĩ",
        "à¸ŀ"
      ],
      [
        "à¸ĩ",
        "à¸Ļà¸³"
      ],
      [
        "à¸Ĺ",
        "à¸ĺ"
      ],
      [
        "à¸¡",
        "à¸Ļ"
      ],
      [
        "à¸¡",
        "à¸Ĺ"
      ],
      [
        "à¸Ķ",
        "à¸ģ"
      ],
      [
        "à¸Ķ",
        "à¸Īà¸²à¸ģ"
      ],
      [
        "à¸Ķ",
        "à¹Ģà¸¡"
      ],
      [
        "à¸¢",
        "à¸²à¸¢"
      ],
      [
        "à¸¢",
        "à¸ĩà¸¥"
      ],
      [
        "à¸Ńà¸ĩ",
        "à¸«à¸£"
      ],
      [
        "à¸Ĭ",
        "à¸Ļ"
      ],
      [
        "Ġs",
        "t"
      ],
      [
        "Ġs",
        "ource"
      ],
      [
        "à¸²à¸£",
        "à¸ĸ"
      ],
      [
        "or",
        "e"
      ],
      [
        "de",
        "x"
      ],
      [
        "Ġc",
        "p"
      ],
      [
        "Ġc",
        "re"
      ],
      [
        "à¸Ńà¸ĩà¸ģà¸²à¸£",
        "à¸Īà¸²à¸ģ"
      ],
      [
        "er",
        "and"
      ],
      [
        "à¸²à¸¡",
        "à¹Ģà¸Ĥ"
      ],
      [
        "à¸²à¸¡",
        "à¸ļà¸£"
      ],
      [
        "à¸²à¸¡",
        "à¸²à¸£à¸ĸ"
      ],
      [
        "re",
        "gex"
      ],
      [
        "Ġf",
        "ile"
      ],
      [
        "Ġp",
        "ar"
      ],
      [
        "te",
        "mpt"
      ],
      [
        "à¸ļà¸²à¸¢",
        "à¸łà¸²à¸©à¸²à¹Ħà¸Ĺà¸¢"
      ],
      [
        "à¸Ńà¸Ļ",
        "à¹ĥà¸Ĭ"
      ],
      [
        "à¸Ńà¸ģ",
        "à¸³à¸¥"
      ],
      [
        "Ġde",
        "nied"
      ],
      [
        "Ġà¸ķ",
        "à¸²à¸¡à¸ļà¸£"
      ],
      [
        "Ġin",
        "dex"
      ],
      [
        "Ġlo",
        "op"
      ],
      [
        "Ġà¹Ĥà¸Ķà¸¢",
        "à¸ķà¸£à¸ĩ"
      ],
      [
        "Ġcon",
        "dition"
      ],
      [
        "à¸ķà¸£à¸ĩ",
        "à¸ģ"
      ],
      [
        "à¹ģà¸Ľà¸¥à¸ĩ",
        "à¸Ĭà¸Ļ"
      ],
      [
        "à¸Ļà¸Ĳà¸²à¸Ļ",
        "à¹Ģà¸Ľ"
      ],
      [
        "')",
        "."
      ],
      [
        "à¸«à¸¡à¸²à¸¢",
        "à¸ĸ"
      ],
      [
        "Ġ+",
        ":"
      ],
      [
        "Ġ+",
        "="
      ],
      [
        "à¸ķà¸£à¸§à¸Ī",
        "à¸Ĥ"
      ],
      [
        "ĠT",
        "ype"
      ],
      [
        "ile",
        "Not"
      ],
      [
        "sh",
        "util"
      ],
      [
        "Ġà¸Ħà¸§à¸£",
        "à¹ģà¸Ľà¸¥à¸ĩà¸Ĭà¸Ļ"
      ],
      [
        "à¸§à¹ģà¸Ľà¸£",
        "à¸ĸ"
      ],
      [
        "Ġwor",
        "king"
      ],
      [
        "Ġun",
        "sup"
      ],
      [
        "Ġch",
        "mod"
      ],
      [
        "ĠF",
        "ROM"
      ],
      [
        "ĠF",
        "ileNot"
      ],
      [
        "à¹Ĥà¸Ķà¸¢",
        "à¸ģà¸³à¸«à¸Ļà¸Ķà¸Ħ"
      ],
      [
        "à¸ĩà¸ª",
        "à¸ķà¸£"
      ],
      [
        "Ġop",
        "erand"
      ],
      [
        "Ġà¹ģà¸ļà¸ļ",
        "à¹Ģà¸ķ"
      ],
      [
        "Ġà¸Ħà¸§à¸£à¸ķà¸£à¸§à¸Ī",
        "à¸§"
      ],
      [
        "mis",
        "sion"
      ],
      [
        "à¸ĩà¸Ħ",
        "à¸Ńà¸¥"
      ],
      [
        "à¸Ńà¸²à¸Ī",
        "à¸¢"
      ],
      [
        "Ġà¸Ĥà¸Ńà¸ĩ",
        "à¸ķ"
      ],
      [
        "Ġat",
        "tempt"
      ],
      [
        "Ġà¹Ħà¸Ľ",
        "à¸ļà¸§"
      ],
      [
        "ĠDE",
        "SC"
      ],
      [
        "Ġà¹ģà¸¥à¸°à¸ª",
        "à¸²à¸¡à¸²à¸£à¸ĸ"
      ],
      [
        "à¸įà¸«",
        "à¸²"
      ],
      [
        "Ġsh",
        "util"
      ],
      [
        "ex",
        "ist"
      ],
      [
        "Ġper",
        "mission"
      ],
      [
        "gl",
        "ish"
      ],
      [
        "Ġdirect",
        "ory"
      ],
      [
        "Ġunb",
        "ound"
      ],
      [
        "Found",
        "Error"
      ],
      [
        "NAM",
        "E"
      ],
      [
        "por",
        "ted"
      ],
      [
        "ĠYY",
        "YY"
      ],
      [
        "Ġà¸£à¸§à¸¡",
        "à¸Ĺ"
      ],
      [
        "à¸Ńà¹Ħà¸Ľ",
        "à¸Ļ"
      ],
      [
        "à¸ģà¸£à¸Ńà¸ĩ",
        "à¸Ķ"
      ],
      [
        "à¸ģà¸ģà¸³à¸«à¸Ļ",
        "à¸Ķà¸ģ"
      ],
      [
        "à¸ĩà¸ŀ",
        "à¸¢à¸²à¸¢"
      ],
      [
        "à¸¢à¸ĩà¸¥",
        "à¸³à¸Ķ"
      ],
      [
        "Ġcre",
        "ated"
      ],
      [
        "à¸Ńà¸ĩà¸ģà¸²à¸£à¸Īà¸²à¸ģ",
        "à¸ķà¸²à¸£à¸²à¸ĩ"
      ],
      [
        "ĠType",
        "Error"
      ],
      [
        "Ġunsup",
        "ported"
      ],
      [
        "ĠFileNot",
        "FoundError"
      ],
      [
        "Ġà¹Ħà¸Ľà¸ļà¸§",
        "à¸ģà¸ģ"
      ],
      [
        "Ġà¹ģà¸¥à¸°à¸ªà¸²à¸¡à¸²à¸£à¸ĸ",
        "à¸ģà¸£à¸Ńà¸ĩà¸Ķ"
      ],
      [
        "à¸ĩà¸ŀà¸¢à¸²à¸¢",
        "à¸²à¸¡à¹Ģà¸Ĥ"
      ],
      [
        "i",
        "o"
      ],
      [
        "n",
        "glish"
      ],
      [
        "o",
        "c"
      ],
      [
        "p",
        "l"
      ],
      [
        "r",
        "it"
      ],
      [
        "|",
        "---"
      ],
      [
        "à¸²à¸",
        "§"
      ],
      [
        "à¸Ļ",
        "à¸Ĥ"
      ],
      [
        "en",
        "ce"
      ],
      [
        "Ġre",
        "qui"
      ],
      [
        "Ġde",
        "fault"
      ],
      [
        "Ġ1",
        "00"
      ],
      [
        "à¸¶",
        "à¹ī"
      ],
      [
        "Ġstr",
        "ing"
      ],
      [
        "qu",
        "es"
      ],
      [
        "erv",
        "ice"
      ],
      [
        "1",
        "0"
      ],
      [
        "g",
        "i"
      ],
      [
        "l",
        "ine"
      ],
      [
        "Ġ",
        "on"
      ],
      [
        "à¸ģ",
        "à¸Ħ"
      ],
      [
        "à¸Ľ",
        "à¸£à¸°"
      ],
      [
        "à¸£à¸°",
        "à¸ļà¸ļ"
      ],
      [
        "ar",
        "k"
      ],
      [
        "##",
        "#"
      ],
      [
        "ol",
        "der"
      ],
      [
        "Ġti",
        "me"
      ],
      [
        "ĠE",
        "nglish"
      ],
      [
        "Ġobj",
        "ect"
      ],
      [
        "Ġrequi",
        "re"
      ],
      [
        ")",
        "."
      ],
      [
        "1",
        "2"
      ],
      [
        "S",
        "cript"
      ],
      [
        "T",
        "i"
      ],
      [
        "a",
        "it"
      ],
      [
        "a",
        "Script"
      ],
      [
        "g",
        "n"
      ],
      [
        "i",
        "es"
      ],
      [
        "Ġ",
        "D"
      ],
      [
        "Ġ",
        "G"
      ],
      [
        "Ġ",
        "it"
      ],
      [
        "à¸",
        "ĭ"
      ],
      [
        "à¸£",
        "à¸Ĺ"
      ],
      [
        "à¸ļ",
        "à¸Ħ"
      ],
      [
        "à¸ª",
        "à¸Ńà¸ļ"
      ],
      [
        "ua",
        "l"
      ],
      [
        "Ġp",
        "airs"
      ],
      [
        "à¸Īà¸³",
        "à¸Ļà¸§"
      ],
      [
        "Ġa",
        "w"
      ],
      [
        "ce",
        "p"
      ],
      [
        "form",
        "al"
      ],
      [
        "at",
        "a"
      ],
      [
        "à¸ļà¸£",
        "à¸£à¸Ĺ"
      ],
      [
        "av",
        "aScript"
      ],
      [
        "ĠJ",
        "avaScript"
      ],
      [
        "low",
        "er"
      ],
      [
        "Ġcont",
        "ent"
      ],
      [
        "Ti",
        "me"
      ],
      [
        "\"",
        "$"
      ],
      [
        ")",
        ")"
      ],
      [
        "-",
        "]+"
      ],
      [
        "=",
        "\"$"
      ],
      [
        "C",
        "OP"
      ],
      [
        "F",
        "ROM"
      ],
      [
        "S",
        "ON"
      ],
      [
        "U",
        "M"
      ],
      [
        "U",
        "P"
      ],
      [
        "b",
        "ase"
      ],
      [
        "c",
        "m"
      ],
      [
        "c",
        "lose"
      ],
      [
        "d",
        "one"
      ],
      [
        "f",
        "older"
      ],
      [
        "g",
        "s"
      ],
      [
        "g",
        "z"
      ],
      [
        "i",
        "c"
      ],
      [
        "o",
        "unc"
      ],
      [
        "r",
        "ay"
      ],
      [
        "t",
        "ar"
      ],
      [
        "t",
        "otal"
      ],
      [
        "t",
        "able"
      ],
      [
        "w",
        "rite"
      ],
      [
        "x",
        "cep"
      ],
      [
        "Ġ",
        "<"
      ],
      [
        "Ġ",
        ">"
      ],
      [
        "Ġ",
        "json"
      ],
      [
        "Ġ",
        "]]"
      ],
      [
        "à¸ļ",
        "à¸Īà¸³à¸Ļà¸§"
      ],
      [
        "à¸ģ",
        "à¸Ĥ"
      ],
      [
        "à¸§",
        "à¸Ļ"
      ],
      [
        "à¸§",
        "à¸Ħ"
      ],
      [
        "à¸ĩ",
        "à¸ĭ"
      ],
      [
        "à¸¡",
        "à¸ŀ"
      ],
      [
        "ĠS",
        "UM"
      ],
      [
        "or",
        "ig"
      ],
      [
        "à¹Ĥ",
        "à¸Ľà¸£"
      ],
      [
        "ll",
        "ection"
      ],
      [
        "Ġc",
        "us"
      ],
      [
        "ti",
        "gn"
      ],
      [
        "Ġf",
        "et"
      ],
      [
        "ur",
        "l"
      ],
      [
        "al",
        "ind"
      ],
      [
        "Ġt",
        "xt"
      ],
      [
        "Ġt",
        "mp"
      ],
      [
        "Ġre",
        "base"
      ],
      [
        "Ġco",
        "llection"
      ],
      [
        "Ġ=",
        ">"
      ],
      [
        "à¸¥à¸ĩ",
        "à¹Ħà¸Łà¸¥"
      ],
      [
        "Ġdeb",
        "ounc"
      ],
      [
        "Ġass",
        "ert"
      ],
      [
        "ar",
        "gs"
      ],
      [
        "Ġlo",
        "ad"
      ],
      [
        "ron",
        "oun"
      ],
      [
        "Ġ'",
        "'"
      ],
      [
        "à¹ģà¸ģ",
        "à¸£à¸¡"
      ],
      [
        "oun",
        "t"
      ],
      [
        "oun",
        "ter"
      ],
      [
        "ro",
        "me"
      ],
      [
        "')",
        ")"
      ],
      [
        "**",
        ":"
      ],
      [
        "à¸ķà¸£à¸§à¸Ī",
        "à¸ªà¸Ńà¸ļ"
      ],
      [
        "à¸Ńà¸Ħà¸§à¸²à¸¡",
        "à¸¥à¸ĩà¹Ħà¸Łà¸¥"
      ],
      [
        "el",
        "se"
      ],
      [
        "Ġor",
        "ders"
      ],
      [
        "ment",
        "s"
      ],
      [
        "app",
        "end"
      ],
      [
        "op",
        "en"
      ],
      [
        "Ġ[",
        "["
      ],
      [
        "Ġ{",
        "}"
      ],
      [
        "st",
        "all"
      ],
      [
        "Ġti",
        "mer"
      ],
      [
        "ĠJ",
        "SON"
      ],
      [
        "res",
        "ult"
      ],
      [
        "am",
        "ount"
      ],
      [
        "Ġar",
        "ray"
      ],
      [
        "to",
        "mer"
      ],
      [
        "Ġretr",
        "y"
      ],
      [
        "Ġdeep",
        "copy"
      ],
      [
        "Ġne",
        "w"
      ],
      [
        "Ġver",
        "b"
      ],
      [
        "pl",
        "it"
      ],
      [
        "Ġdefault",
        "dict"
      ],
      [
        "Ġ100",
        "00"
      ],
      [
        "gi",
        "tign"
      ],
      [
        "Ġrequire",
        "ments"
      ],
      [
        "Ġaw",
        "ait"
      ],
      [
        "Time",
        "out"
      ],
      [
        "COP",
        "Y"
      ],
      [
        "cm",
        "d"
      ],
      [
        "à¹Ĥà¸Ľà¸£",
        "à¹ģà¸ģà¸£à¸¡"
      ],
      [
        "Ġcus",
        "tomer"
      ],
      [
        "Ġfet",
        "ch"
      ],
      [
        "alind",
        "rome"
      ],
      [
        "Ġcollection",
        "s"
      ],
      [
        "Ġdebounc",
        "e"
      ],
      [
        "gitign",
        "ore"
      ],
      [
        "n",
        "ot"
      ],
      [
        "r",
        "a"
      ],
      [
        "r",
        "y"
      ],
      [
        "t",
        "en"
      ],
      [
        "à¹ĥ",
        "à¸Ī"
      ],
      [
        "à¸«",
        "à¸§"
      ],
      [
        "th",
        "od"
      ],
      [
        "or",
        "d"
      ],
      [
        "as",
        "ual"
      ],
      [
        "à¸ļà¸²à¸¢",
        "à¸Ħà¸§à¸²à¸¡"
      ],
      [
        "Ġb",
        "e"
      ],
      [
        "Ġcon",
        "text"
      ],
      [
        "av",
        "e"
      ],
      [
        "Ġword",
        "s"
      ],
      [
        "Ġme",
        "thod"
      ],
      [
        "5",
        "5"
      ],
      [
        "T",
        "hai"
      ],
      [
        "k",
        "er"
      ],
      [
        "m",
        "o"
      ],
      [
        "à¸²",
        "à¹Ħà¸¡"
      ],
      [
        "end",
        "ing"
      ],
      [
        "Ġm",
        "ark"
      ],
      [
        "Ġus",
        "ed"
      ],
      [
        "n",
        "o"
      ],
      [
        "p",
        "ut"
      ],
      [
        "Ġ",
        "H"
      ],
      [
        "Ġ",
        "à¹ĥà¸Ļ"
      ],
      [
        "à¸Ń",
        "à¹ĥà¸Ĭ"
      ],
      [
        "à¸Ķ",
        "à¹Ħà¸¡"
      ],
      [
        "à¸Ħ",
        "à¸§à¸£"
      ],
      [
        "à¸ģà¸²à¸£",
        "à¹Ģà¸£"
      ],
      [
        "un",
        "t"
      ],
      [
        "Ġà¸«",
        "à¸¥"
      ],
      [
        "Ġin",
        "put"
      ],
      [
        "Ġb",
        "u"
      ],
      [
        "à¹ĥà¸Ļ",
        "à¸£à¸°à¸ļà¸ļ"
      ],
      [
        "Ġfor",
        "mal"
      ],
      [
        "ar",
        "y"
      ],
      [
        "Ġw",
        "he"
      ],
      [
        "à¸Ķà¸ķ",
        "à¸²à¸¡"
      ],
      [
        "()",
        "."
      ],
      [
        "Ġg",
        "o"
      ],
      [
        "Ġg",
        "en"
      ],
      [
        "Ġg",
        "it"
      ],
      [
        "ig",
        "h"
      ],
      [
        "Ġà¹ģà¸ļà¸ļ",
        "à¸ª"
      ],
      [
        "ol",
        "ite"
      ],
      [
        "à¸¡à¸²à¸ģ",
        "à¸ģà¸§"
      ],
      [
        "|---",
        "|---"
      ],
      [
        "a",
        "ge"
      ],
      [
        "i",
        "z"
      ],
      [
        "l",
        "es"
      ],
      [
        "p",
        "ending"
      ],
      [
        "w",
        "ord"
      ],
      [
        "à¸Ńà¸",
        "«"
      ],
      [
        "à¸Ļ",
        "à¸Ļ"
      ],
      [
        "à¸ķ",
        "à¸Ńà¸Ļ"
      ],
      [
        "à¸§",
        "à¸Ĥ"
      ],
      [
        "à¸Ĺ",
        "à¸£"
      ],
      [
        "à¸Ī",
        "à¸°"
      ],
      [
        "Ġp",
        "ronoun"
      ],
      [
        "Ġà¸«",
        "à¸Ļ"
      ],
      [
        "Ġb",
        "y"
      ],
      [
        "Ġa",
        "re"
      ],
      [
        "Ġ1",
        "2"
      ],
      [
        "Ġe",
        "at"
      ],
      [
        "Ġn",
        "ame"
      ],
      [
        "Ġm",
        "o"
      ],
      [
        "ro",
        "w"
      ],
      [
        "if",
        "i"
      ],
      [
        "all",
        "y"
      ],
      [
        "Ġh",
        "as"
      ],
      [
        "Ġpar",
        "tic"
      ],
      [
        "?",
        "\""
      ],
      [
        "f",
        "er"
      ],
      [
        "s",
        "ing"
      ],
      [
        "Ġ",
        "M"
      ],
      [
        "Ġ",
        "an"
      ],
      [
        "à¸²",
        "à¹ĥà¸Ī"
      ],
      [
        "à¸ģ",
        "à¸£"
      ],
      [
        "on",
        "g"
      ],
      [
        "Ġs",
        "o"
      ],
      [
        "à¸¸",
        "à¹Ī"
      ],
      [
        "Ġà¸Ħ",
        "à¸£"
      ],
      [
        "Ġ1",
        "3"
      ],
      [
        "Ġ1",
        "4"
      ],
      [
        "Ġ1",
        "5"
      ],
      [
        "Ġ1",
        "6"
      ],
      [
        "Ġ1",
        "7"
      ],
      [
        "Ġ1",
        "8"
      ],
      [
        "Ġ1",
        "9"
      ],
      [
        "à¸²à¸°",
        "à¸«"
      ],
      [
        "à¹Ģà¸Ħà¸£",
        "à¸²à¸°à¸«"
      ],
      [
        "Ġw",
        "h"
      ],
      [
        "Ġw",
        "rit"
      ],
      [
        "it",
        "y"
      ],
      [
        "word",
        "s"
      ],
      [
        "'",
        "t"
      ],
      [
        "5",
        "6"
      ],
      [
        "O",
        "OP"
      ],
      [
        "a",
        "p"
      ],
      [
        "b",
        "y"
      ],
      [
        "c",
        "ur"
      ],
      [
        "g",
        "ist"
      ],
      [
        "h",
        "a"
      ],
      [
        "j",
        "ection"
      ],
      [
        "u",
        "ll"
      ],
      [
        "¤",
        "à¸ķ"
      ],
      [
        "Ġ",
        "Y"
      ],
      [
        "à¸",
        "¤à¸ķ"
      ],
      [
        "à¸Ń",
        "à¹ģà¸ģ"
      ],
      [
        "à¸Ń",
        "à¸Ńà¸²à¸"
      ],
      [
        "à¸Ļ",
        "à¹ĥà¸Ĭ"
      ],
      [
        "à¸Ļ",
        "à¹Ģà¸£"
      ],
      [
        "à¸Ļ",
        "à¸ķà¸Ńà¸Ļ"
      ],
      [
        "à¸¥",
        "à¸Ĺ"
      ],
      [
        "Ġà¸",
        "Ł"
      ],
      [
        "à¸ĩ",
        "à¸Ĥ"
      ],
      [
        "à¸ĩ",
        "à¸ķà¸£à¸§à¸Īà¸ªà¸Ńà¸ļ"
      ],
      [
        "à¸ª",
        "à¸Ńà¸Ļ"
      ],
      [
        "Ġs",
        "ent"
      ],
      [
        "Ġs",
        "pe"
      ],
      [
        "Ġs",
        "ervice"
      ],
      [
        "à¸²à¸£",
        "à¸Ĺ"
      ],
      [
        "à¸²à¸£",
        "à¸¢"
      ],
      [
        "à¸²à¸ĩ",
        "à¸£à¸°"
      ],
      [
        "Ġc",
        "asual"
      ],
      [
        "RE",
        "ST"
      ],
      [
        "à¸ĩà¸²à¸Ļ",
        "à¸Īà¸£"
      ],
      [
        "à¸ŀ",
        "à¸¤à¸ķ"
      ],
      [
        "Ġp",
        "olite"
      ],
      [
        "Ġt",
        "up"
      ],
      [
        "Ġl",
        "en"
      ],
      [
        "Ġl",
        "et"
      ],
      [
        "à¸Ńà¸ģ",
        "à¸²à¸£à¸Ĺ"
      ],
      [
        "il",
        "d"
      ],
      [
        "Ġin",
        "jection"
      ],
      [
        "Ġco",
        "unt"
      ],
      [
        "Ġe",
        "l"
      ],
      [
        "Ġn",
        "um"
      ],
      [
        "for",
        "e"
      ],
      [
        "le",
        "te"
      ],
      [
        "le",
        "ep"
      ],
      [
        "à¹Ħà¸Ĥ",
        "à¸Ħ"
      ],
      [
        "at",
        "us"
      ],
      [
        "ac",
        "he"
      ],
      [
        "Ġ01",
        "3"
      ],
      [
        "Ġ01",
        "4"
      ],
      [
        "Ġ01",
        "6"
      ],
      [
        "Ġ01",
        "7"
      ],
      [
        "Ġ01",
        "8"
      ],
      [
        "Ġ01",
        "9"
      ],
      [
        "Ġ02",
        "3"
      ],
      [
        "Ġ02",
        "4"
      ],
      [
        "Ġ02",
        "6"
      ],
      [
        "Ġ02",
        "7"
      ],
      [
        "Ġ02",
        "8"
      ],
      [
        "Ġ02",
        "9"
      ],
      [
        "Ġ03",
        "3"
      ],
      [
        "Ġ03",
        "4"
      ],
      [
        "Ġ03",
        "6"
      ],
      [
        "Ġ03",
        "7"
      ],
      [
        "Ġ03",
        "8"
      ],
      [
        "Ġ03",
        "9"
      ],
      [
        "Ġ04",
        "3"
      ],
      [
        "Ġ04",
        "4"
      ],
      [
        "Ġ04",
        "6"
      ],
      [
        "Ġ04",
        "7"
      ],
      [
        "Ġ04",
        "8"
      ],
      [
        "Ġ04",
        "9"
      ],
      [
        "Ġ05",
        "3"
      ],
      [
        "Ġ05",
        "4"
      ],
      [
        "Ġ05",
        "6"
      ],
      [
        "Ġ05",
        "7"
      ],
      [
        "Ġ05",
        "8"
      ],
      [
        "Ġ05",
        "9"
      ],
      [
        "Ġ00",
        "3"
      ],
      [
        "Ġ00",
        "4"
      ],
      [
        "Ġ00",
        "6"
      ],
      [
        "Ġ00",
        "7"
      ],
      [
        "Ġ00",
        "8"
      ],
      [
        "Ġ00",
        "9"
      ],
      [
        "Ġ06",
        "3"
      ],
      [
        "Ġ06",
        "4"
      ],
      [
        "Ġ06",
        "6"
      ],
      [
        "Ġ06",
        "7"
      ],
      [
        "Ġ06",
        "8"
      ],
      [
        "à¸ķà¸Ńà¸ļà¹ģà¸ļà¸ļ",
        "à¸¡"
      ],
      [
        "à¸ķà¸Ńà¸ļà¹ģà¸ļà¸ļ",
        "à¸ª"
      ],
      [
        "à¸ķà¸Ńà¸ļà¹ģà¸ļà¸ļ",
        "à¹Ģà¸Ľ"
      ],
      [
        "à¸ķà¸Ńà¸ļà¹ģà¸ļà¸ļ",
        "à¹Ģà¸Ļ"
      ],
      [
        "à¸ķà¸Ńà¸ļà¹ģà¸ļà¸ļ",
        "à¸Ńà¸²à¸Ī"
      ],
      [
        "à¸Ĥà¸Ńà¸ĩ",
        "à¸Ľ"
      ],
      [
        "Ġcle",
        "ar"
      ],
      [
        "Ġr",
        "a"
      ],
      [
        "ques",
        "tion"
      ],
      [
        "à¸ļà¸²à¸¢à¸Ħà¸§à¸²à¸¡",
        "à¸ķ"
      ],
      [
        "à¸ģà¸£",
        "à¸£à¸¡"
      ],
      [
        "cur",
        "sion"
      ],
      [
        "à¸Ńà¸Ńà¸²à¸",
        "Ĭ"
      ],
      [
        "à¸²à¸ĩà¸£à¸°",
        "à¸«à¸§"
      ],
      [
        "Ġtup",
        "le"
      ],
      [
        "à¸ķà¸Ńà¸ļà¹ģà¸ļà¸ļà¸Ńà¸²à¸Ī",
        "à¸²à¸£à¸¢"
      ],
      [
        "1",
        "1"
      ],
      [
        "1",
        "3"
      ],
      [
        "1",
        "4"
      ],
      [
        "1",
        "5"
      ],
      [
        "1",
        "6"
      ],
      [
        "1",
        "7"
      ],
      [
        "1",
        "8"
      ],
      [
        "1",
        "9"
      ],
      [
        "2",
        "0"
      ],
      [
        "2",
        "3"
      ],
      [
        "S",
        "V"
      ],
      [
        "a",
        "il"
      ],
      [
        "a",
        "der"
      ],
      [
        "c",
        "es"
      ],
      [
        "f",
        "ig"
      ],
      [
        "g",
        "it"
      ],
      [
        "i",
        "al"
      ],
      [
        "i",
        "ct"
      ],
      [
        "o",
        "m"
      ],
      [
        "s",
        "ervice"
      ],
      [
        "s",
        "leep"
      ],
      [
        "y",
        "ou"
      ],
      [
        "Ġ",
        "up"
      ],
      [
        "à¸²à¸",
        "Ī"
      ],
      [
        "à¸²à¸",
        "Ĭ"
      ],
      [
        "à¸¥",
        "à¸ķ"
      ],
      [
        "à¸¥",
        "à¸°"
      ],
      [
        "à¸ĩ",
        "à¸«à¸¡"
      ],
      [
        "à¹Ħ",
        "à¸«à¸¡"
      ],
      [
        "à¸³",
        "à¹Ģà¸Ľ"
      ],
      [
        "in",
        "s"
      ],
      [
        "SE",
        "T"
      ],
      [
        "AM",
        "L"
      ],
      [
        "IN",
        "G"
      ],
      [
        "re",
        "p"
      ],
      [
        "re",
        "ad"
      ],
      [
        "ti",
        "me"
      ],
      [
        "Ġf",
        "rom"
      ],
      [
        "Ġf",
        "ind"
      ],
      [
        "Ġp",
        "ro"
      ],
      [
        "as",
        "y"
      ],
      [
        "is",
        "e"
      ],
      [
        "à¹ĥà¸«",
        "à¸¡"
      ],
      [
        "Ġt",
        "one"
      ],
      [
        "ro",
        "up"
      ],
      [
        "ai",
        "d"
      ],
      [
        "ad",
        "d"
      ],
      [
        "Ġg",
        "roup"
      ],
      [
        "Ġâ",
        "Ĩ"
      ],
      [
        "mal",
        "e"
      ],
      [
        "ow",
        "el"
      ],
      [
        "oc",
        "ker"
      ],
      [
        "ques",
        "t"
      ],
      [
        "ĠD",
        "ocker"
      ],
      [
        "ĠG",
        "it"
      ],
      [
        "ĠY",
        "AML"
      ],
      [
        "à¸ĩà¸«à¸¡",
        "à¸Ķ"
      ],
      [
        "ĠDocker",
        "file"
      ],
      [
        "\"",
        ","
      ],
      [
        "\"",
        "]"
      ],
      [
        "%",
        "+"
      ],
      [
        "(",
        "["
      ],
      [
        "(",
        "()"
      ],
      [
        "(",
        "..."
      ],
      [
        ")",
        "')"
      ],
      [
        ",",
        "}$"
      ],
      [
        ",",
        "]+"
      ],
      [
        ".",
        "["
      ],
      [
        ".",
        "_"
      ],
      [
        ".",
        "-]+"
      ],
      [
        "2",
        "1"
      ],
      [
        "2",
        "2"
      ],
      [
        "2",
        "4"
      ],
      [
        "2",
        "5"
      ],
      [
        "5",
        "4"
      ],
      [
        "8",
        "080"
      ],
      [
        ":",
        ":-"
      ],
      [
        "=",
        "${"
      ],
      [
        ">",
        "&"
      ],
      [
        "@",
        "["
      ],
      [
        "A",
        "V"
      ],
      [
        "C",
        "M"
      ],
      [
        "C",
        "ounter"
      ],
      [
        "D",
        "I"
      ],
      [
        "D",
        "ATE"
      ],
      [
        "D",
        "ata"
      ],
      [
        "D",
        "ict"
      ],
      [
        "F",
        "S"
      ],
      [
        "G",
        "RO"
      ],
      [
        "H",
        "AV"
      ],
      [
        "K",
        "DI"
      ],
      [
        "L",
        "L"
      ],
      [
        "U",
        "LL"
      ],
      [
        "W",
        "OR"
      ],
      [
        "[",
        "::-"
      ],
      [
        "\\",
        ".["
      ],
      [
        "]",
        "{"
      ],
      [
        "^",
        "["
      ],
      [
        "^",
        ",]+"
      ],
      [
        "a",
        "ti"
      ],
      [
        "c",
        "p"
      ],
      [
        "c",
        "z"
      ],
      [
        "c",
        "all"
      ],
      [
        "c",
        "ache"
      ],
      [
        "d",
        "ay"
      ],
      [
        "d",
        "ate"
      ],
      [
        "d",
        "ata"
      ],
      [
        "e",
        "cho"
      ],
      [
        "e",
        "mpt"
      ],
      [
        "f",
        "n"
      ],
      [
        "f",
        "re"
      ],
      [
        "f",
        "unc"
      ],
      [
        "f",
        "unction"
      ],
      [
        "f",
        "ound"
      ],
      [
        "f",
        "ind"
      ],
      [
        "g",
        "m"
      ],
      [
        "g",
        "lo"
      ],
      [
        "g",
        "rep"
      ],
      [
        "h",
        "is"
      ],
      [
        "h",
        "ile"
      ],
      [
        "i",
        "q"
      ],
      [
        "i",
        "ron"
      ],
      [
        "j",
        "o"
      ],
      [
        "m",
        "time"
      ],
      [
        "n",
        "c"
      ],
      [
        "n",
        "ull"
      ],
      [
        "o",
        "st"
      ],
      [
        "p",
        "ython"
      ],
      [
        "p",
        "ay"
      ],
      [
        "p",
        "alindrome"
      ],
      [
        "r",
        "i"
      ],
      [
        "r",
        "glo"
      ],
      [
        "s",
        "te"
      ],
      [
        "s",
        "ort"
      ],
      [
        "s",
        "li"
      ],
      [
        "s",
        "plit"
      ],
      [
        "t",
        "ype"
      ],
      [
        "u",
        "g"
      ],
      [
        "u",
        "re"
      ],
      [
        "v",
        "alue"
      ],
      [
        "w",
        "c"
      ],
      [
        "w",
        "hile"
      ],
      [
        "x",
        "a"
      ],
      [
        "}",
        ";"
      ],
      [
        "}",
        "\\"
      ],
      [
        "~",
        "="
      ],
      [
        "¥",
        "à¸³à¸Ķ"
      ],
      [
        "Ġ",
        "W"
      ],
      [
        "Ġ",
        "à¹Ħà¸Łà¸¥"
      ],
      [
        "Ġ",
        "ran"
      ],
      [
        "Ġ",
        "à¹Ħà¸Ľà¸¢"
      ],
      [
        "Ġ",
        "à¹Ħà¸Ľà¸ķ"
      ],
      [
        "Ġ",
        "env"
      ],
      [
        "Ġ",
        "Error"
      ],
      [
        "Ġ",
        "à¸ģà¸²à¸£à¹Ģà¸£"
      ],
      [
        "Ġ",
        "question"
      ],
      [
        "Ġ",
        "};"
      ],
      [
        "Ġ",
        "~="
      ],
      [
        "ī",
        "à¸¥"
      ],
      [
        "Ķ",
        "à¸ª"
      ],
      [
        "ľ",
        "à¸¥"
      ],
      [
        "ł",
        "à¸Ĺ"
      ],
      [
        "à¸²",
        "à¹Ħà¸Łà¸¥"
      ],
      [
        "à¸Ń",
        "à¹ĥà¸«"
      ],
      [
        "à¸Ń",
        "à¹Ĥà¸Łà¸¥à¹Ģà¸Ķà¸Ńà¸£"
      ],
      [
        "à¸²à¸",
        "ĭ"
      ],
      [
        "à¸²à¸",
        "ľà¸¥"
      ],
      [
        "à¸Ńà¸",
        "Ķà¸ª"
      ],
      [
        "à¸£",
        "à¸²à¸¢"
      ],
      [
        "à¸Ļ",
        "à¸Ń"
      ],
      [
        "à¸Ļ",
        "à¸¥"
      ],
      [
        "à¸Ļ",
        "à¹ģà¸¥"
      ],
      [
        "à¸Ļ",
        "à¹ĥà¸Ļ"
      ],
      [
        "à¸Ļ",
        "à¸ļà¸£à¸£à¸Ĺ"
      ],
      [
        "à¸ļ",
        "à¸Ń"
      ],
      [
        "à¸ļ",
        "à¸Ħà¸§à¸²à¸¡"
      ],
      [
        "à¹Ģà¸",
        "łà¸Ĺ"
      ],
      [
        "à¸¥",
        "à¹ģà¸ļà¸ļ"
      ],
      [
        "à¸ģ",
        "à¹Ħà¸Łà¸¥"
      ],
      [
        "à¸ģ",
        "à¹ĥà¸Ļà¸ķà¸²à¸£à¸²à¸ĩ"
      ],
      [
        "Ġà¸",
        "ī"
      ],
      [
        "à¸§",
        "à¸Ħà¸£"
      ],
      [
        "à¸§",
        "à¸ŀ"
      ],
      [
        "à¹ģ",
        "à¸Ĭ"
      ],
      [
        "à¸ĩ",
        "à¸§"
      ],
      [
        "à¸ĩ",
        "à¹Ħà¸Łà¸¥"
      ],
      [
        "à¸ĩ",
        "à¹Ģà¸¡"
      ],
      [
        "à¸³",
        "à¹ĥà¸Ļ"
      ],
      [
        "à¸¡",
        "à¸Ĥ"
      ],
      [
        "à¸¡",
        "à¸²à¸Ĭ"
      ],
      [
        "à¸Ķ",
        "à¸ģà¸¥"
      ],
      [
        "à¸Ķ",
        "à¹Ĥà¸Łà¸¥à¹Ģà¸Ķà¸Ńà¸£"
      ],
      [
        "à¹ĥ",
        "à¸Ķà¹Ħà¸¡"
      ],
      [
        "à¸¢",
        "à¸ĩ"
      ],
      [
        "à¸¢",
        "à¸Ĥà¸Ńà¸ĩ"
      ],
      [
        "à¸¢",
        "à¸Ńà¸Ķà¸ª"
      ],
      [
        "à¸Ńà¸ĩ",
        "à¸Ĺ"
      ],
      [
        "à¸Ńà¸ĩ",
        "à¸£à¸°"
      ],
      [
        "à¸°",
        "à¸Ħà¸³à¸ª"
      ],
      [
        "in",
        "stall"
      ],
      [
        "Ġs",
        "plit"
      ],
      [
        "Ġs",
        "ave"
      ],
      [
        "à¸²à¸¢",
        "à¸Ĭ"
      ],
      [
        "à¸²à¸¢",
        "à¹Ĩ"
      ],
      [
        "à¸²à¸Ļ",
        "à¸°à¸Ħà¸³à¸ª"
      ],
      [
        "à¸Ľ",
        "à¹Ħà¸Łà¸¥"
      ],
      [
        "SE",
        "LECT"
      ],
      [
        "à¸Ńà¸¢",
        "à¹Ħà¸Ľ"
      ],
      [
        "or",
        "der"
      ],
      [
        "or",
        "mal"
      ],
      [
        "à¸²à¸ĩ",
        "à¸«à¸£"
      ],
      [
        "à¸²à¸ĩ",
        "à¸Ľà¸£à¸°"
      ],
      [
        "à¸ģà¸²à¸£",
        "à¸ķ"
      ],
      [
        "à¸Ńà¸ļ",
        "à¸Ļà¸Ĳà¸²à¸Ļ"
      ],
      [
        "de",
        "v"
      ],
      [
        "de",
        "lay"
      ],
      [
        "de",
        "lete"
      ],
      [
        "Ġc",
        "sv"
      ],
      [
        "RU",
        "N"
      ],
      [
        "à¸²à¸ģ",
        "à¸§"
      ],
      [
        "à¸²à¸ģ",
        "à¸ķà¸²à¸£à¸²à¸ĩ"
      ],
      [
        "à¸ĸ",
        "à¸²à¸Ļà¸°à¸Ħà¸³à¸ª"
      ],
      [
        "re",
        "tr"
      ],
      [
        "re",
        "quest"
      ],
      [
        "ti",
        "fa"
      ],
      [
        "ti",
        "mer"
      ],
      [
        "à¸ļà¸ļ",
        "à¸²à¸ĩà¸Ľà¸£à¸°"
      ],
      [
        "ĠP",
        "ORT"
      ],
      [
        "Ġf",
        "n"
      ],
      [
        "Ġf",
        "unc"
      ],
      [
        "Ġf",
        "ound"
      ],
      [
        "Ġf",
        "ail"
      ],
      [
        "Ġp",
        "h"
      ],
      [
        "Ġp",
        "ort"
      ],
      [
        "Ġp",
        "alindrome"
      ],
      [
        "Ġp",
        "aid"
      ],
      [
        "ĠA",
        "S"
      ],
      [
        "is",
        "al"
      ],
      [
        "à¸ļà¸²à¸¢",
        "à¸Ħà¸³à¸ª"
      ],
      [
        "à¸§à¸¢",
        "à¸ķ"
      ],
      [
        "Ġt",
        "ar"
      ],
      [
        "Ġt",
        "bl"
      ],
      [
        "Ġt",
        "ry"
      ],
      [
        "Ġà¸Ĺ",
        "à¸³"
      ],
      [
        "Ġà¹ģ",
        "à¸¢à¸ģ"
      ],
      [
        "à¸Ħà¸³",
        "à¹ĥà¸Ļ"
      ],
      [
        "Ġl",
        "ine"
      ],
      [
        "Ġde",
        "mo"
      ],
      [
        "Ġà¸«",
        "à¸²à¸Ħ"
      ],
      [
        "Ġà¸«",
        "à¸²à¸ľà¸¥"
      ],
      [
        "Ġà¸ķ",
        "à¸²à¸£à¸²à¸ĩ"
      ],
      [
        "Ġin",
        "formal"
      ],
      [
        "Ġin",
        "stall"
      ],
      [
        "Ġ-",
        "-"
      ],
      [
        "à¸Ńà¸£",
        "à¸§à¸¡"
      ],
      [
        "à¸£à¸Ńà¸ĩ",
        "à¹Ħà¸Łà¸¥"
      ],
      [
        "Ġb",
        "ut"
      ],
      [
        "ul",
        "d"
      ],
      [
        "Ġ(",
        "!"
      ],
      [
        "Ġ(",
        "..."
      ],
      [
        "à¸ļà¹Ģà¸",
        "Ķ"
      ],
      [
        "Ġà¸ŀ",
        "à¸Ńà¸£"
      ],
      [
        "Ġà¸ª",
        "à¸ĸà¸²à¸Ļà¸°à¸Ħà¸³à¸ª"
      ],
      [
        "Ġa",
        "b"
      ],
      [
        "Ġa",
        "m"
      ],
      [
        "Ġa",
        "ver"
      ],
      [
        "Ġ|",
        "|"
      ],
      [
        "end",
        "s"
      ],
      [
        "Ġà¸ªà¸³",
        "à¸£à¸Ńà¸ĩà¹Ħà¸Łà¸¥"
      ],
      [
        "à¹ĥà¸Ļ",
        "à¹Ĥà¸Łà¸¥à¹Ģà¸Ķà¸Ńà¸£"
      ],
      [
        "es",
        "s"
      ],
      [
        "Ġe",
        "xcep"
      ],
      [
        "Ġn",
        "o"
      ],
      [
        "Ġà¹ģà¸¥à¸°",
        "à¸Ħà¸§à¸²à¸¡"
      ],
      [
        "lo",
        "ad"
      ],
      [
        "Ġd",
        "if"
      ],
      [
        "Ġw",
        "rite"
      ],
      [
        "Ġà¹Ĥà¸Ķà¸¢",
        "à¸£"
      ],
      [
        "Ġà¸Ī",
        "à¸²à¸ģ"
      ],
      [
        "Ġcon",
        "st"
      ],
      [
        "Ġcon",
        "fig"
      ],
      [
        "Ġ'",
        "(["
      ],
      [
        "à¸²à¹Ģà¸",
        "īà¸¥"
      ],
      [
        "inu",
        "e"
      ],
      [
        "à¸ģà¸©à¸²à¸",
        "¥à¸³à¸Ķ"
      ],
      [
        "à¸²à¸Ħ",
        "à¸³à¹Ģà¸Ľ"
      ],
      [
        "at",
        "ch"
      ],
      [
        "Ġset",
        "Timeout"
      ],
      [
        "')",
        ";"
      ],
      [
        "')",
        "]"
      ],
      [
        "Ġth",
        "is"
      ],
      [
        "Ġth",
        "row"
      ],
      [
        "à¸Ļà¸ª",
        "à¸¡à¸²à¸Ĭ"
      ],
      [
        "à¸¢à¸ļ",
        "à¸Ĥ"
      ],
      [
        "à¸¢à¸ģ",
        "à¸Ł"
      ],
      [
        "()",
        ")"
      ],
      [
        "()",
        ";"
      ],
      [
        "à¸Ķà¸Ĥ",
        "à¸Ńà¸ĩà¸Ĺ"
      ],
      [
        "ke",
        "ep"
      ],
      [
        "à¸Ńà¸Ħà¸§à¸²à¸¡",
        "à¸Ķ"
      ],
      [
        "('",
        "*"
      ],
      [
        "('",
        "*."
      ],
      [
        "Ġun",
        "iq"
      ],
      [
        "à¸Īà¸²à¸ģ",
        "à¸Ļ"
      ],
      [
        "Ġcomm",
        "a"
      ],
      [
        "Ġcomm",
        "it"
      ],
      [
        "log",
        "s"
      ],
      [
        "Re",
        "ader"
      ],
      [
        "ĠI",
        "S"
      ],
      [
        "ĠI",
        "FS"
      ],
      [
        "Ġ[",
        "\""
      ],
      [
        "Ġ[",
        "]"
      ],
      [
        "ĠC",
        "o"
      ],
      [
        "ĠC",
        "ounter"
      ],
      [
        "ĠC",
        "SV"
      ],
      [
        "Ġà¸ķà¸£à¸§à¸Ī",
        "à¸Ń"
      ],
      [
        "Ġà¸ķà¸£à¸§à¸Ī",
        "à¸Ħà¸³à¸ª"
      ],
      [
        "à¹Ģà¸¡",
        "à¸¥à¹ģà¸ļà¸ļ"
      ],
      [
        "à¸Ĥà¸Ńà¸ĩ",
        "à¸ķ"
      ],
      [
        "Ġà¸§",
        "à¸Ļà¸¥"
      ],
      [
        "='",
        "',"
      ],
      [
        "ĠE",
        "xcep"
      ],
      [
        "ĠN",
        "one"
      ],
      [
        "ĠN",
        "ULL"
      ],
      [
        "mis",
        "sing"
      ],
      [
        "Ġh",
        "ost"
      ],
      [
        "Ġme",
        "an"
      ],
      [
        "à¸£à¸§à¸¡",
        "à¸Ĥà¸Ńà¸ĩà¸ķ"
      ],
      [
        "Ġar",
        "tifa"
      ],
      [
        "Ġcont",
        "inue"
      ],
      [
        "]]",
        "."
      ],
      [
        "à¸§à¹Ģà¸¥à¸Ĥ",
        "à¹ĥà¸Ļà¸ķà¸²à¸£à¸²à¸ĩ"
      ],
      [
        "à¸§à¹Ģà¸¥à¸Ĥ",
        "à¸Īà¸²à¸ģà¸Ļ"
      ],
      [
        "Ġretr",
        "ies"
      ],
      [
        "Ġà¸«à¸²",
        "à¹Ħà¸Łà¸¥"
      ],
      [
        "Ġà¸«à¸²",
        "à¹Ģà¸¥à¸Ĥ"
      ],
      [
        "à¹ĥà¸Ļà¸ķà¸²à¸£à¸²à¸ĩ",
        "à¸«à¸£"
      ],
      [
        "Ġver",
        "y"
      ],
      [
        "Ġà¸¥",
        "à¸ļà¹Ħà¸Łà¸¥"
      ],
      [
        "Ġà¸¥",
        "à¸ļà¸Ħ"
      ],
      [
        "Ġst",
        "atus"
      ],
      [
        "à¸Ľà¸£à¸°",
        "à¸§"
      ],
      [
        "à¸ļà¸Ħ",
        "à¸Ļà¸Ń"
      ],
      [
        "-]+",
        "@["
      ],
      [
        "UP",
        "DATE"
      ],
      [
        "Ġ>",
        "/"
      ],
      [
        "Ġ]]",
        ";"
      ],
      [
        "à¸ļà¸Īà¸³à¸Ļà¸§",
        "à¸Ļà¸ļà¸£à¸£à¸Ĺ"
      ],
      [
        "à¸ļà¸Īà¸³à¸Ļà¸§",
        "à¸Ļà¸ªà¸¡à¸²à¸Ĭ"
      ],
      [
        "Ġload",
        "Data"
      ],
      [
        "Ġ''",
        "."
      ],
      [
        "Ġnew",
        "line"
      ],
      [
        "ra",
        "mm"
      ],
      [
        "Ġbe",
        "fore"
      ],
      [
        "à¸Ħà¸§à¸£",
        "à¸ĸ"
      ],
      [
        "Ġbu",
        "ild"
      ],
      [
        "à¹ĥà¸Ļà¸£à¸°à¸ļà¸ļ",
        "à¸«à¸£"
      ],
      [
        "Ġwhe",
        "n"
      ],
      [
        "à¸Ķà¸ķà¸²à¸¡",
        "à¹Ĥà¸Ķà¸¢"
      ],
      [
        "Ġgen",
        "er"
      ],
      [
        "gist",
        "er"
      ],
      [
        "Ġspe",
        "a"
      ],
      [
        "Ġel",
        "se"
      ],
      [
        "Ġnum",
        "s"
      ],
      [
        "Ġclear",
        "Timeout"
      ],
      [
        "Ġra",
        "ise"
      ],
      [
        "Ġup",
        "date"
      ],
      [
        "à¸²à¸Ī",
        "à¸²à¸ģà¸ķà¸²à¸£à¸²à¸ĩ"
      ],
      [
        "à¸¥à¸ķ",
        "à¸²à¸¡"
      ],
      [
        "à¸¥à¸°",
        "à¸ļà¸£à¸£à¸Ĺ"
      ],
      [
        "ins",
        "ert"
      ],
      [
        "asy",
        "nc"
      ],
      [
        "à¸ĩà¸«à¸¡à¸Ķ",
        "à¹ĥà¸Ļà¹Ĥà¸Łà¸¥à¹Ģà¸Ķà¸Ńà¸£"
      ],
      [
        "%+",
        "-]+@["
      ],
      [
        "._",
        "%+-]+@["
      ],
      [
        ".-]+",
        "\\.["
      ],
      [
        "CM",
        "D"
      ],
      [
        "Dict",
        "Reader"
      ],
      [
        "GRO",
        "UP"
      ],
      [
        "HAV",
        "ING"
      ],
      [
        "KDI",
        "R"
      ],
      [
        "WOR",
        "KDIR"
      ],
      [
        "^,]+",
        ")')"
      ],
      [
        "cz",
        "f"
      ],
      [
        "empt",
        "y"
      ],
      [
        "fre",
        "q"
      ],
      [
        "gm",
        "atch"
      ],
      [
        "iron",
        "ment"
      ],
      [
        "jo",
        "in"
      ],
      [
        "pay",
        "ment"
      ],
      [
        "rglo",
        "b"
      ],
      [
        "sli",
        "m"
      ],
      [
        "Ġran",
        "ge"
      ],
      [
        "Ġenv",
        "ironment"
      ],
      [
        "à¸£à¸²à¸¢",
        "à¸ģà¸²à¸£à¸ķ"
      ],
      [
        "à¸ļà¸Ħà¸§à¸²à¸¡",
        "à¸ĸ"
      ],
      [
        "à¸ģà¹ĥà¸Ļà¸ķà¸²à¸£à¸²à¸ĩ",
        "à¹ģà¸ļà¸ļ"
      ],
      [
        "à¸§à¸Ħà¸£",
        "à¸²à¸§"
      ],
      [
        "à¹ģà¸Ĭ",
        "à¸£"
      ],
      [
        "à¸¢à¸Ĥà¸Ńà¸ĩ",
        "à¸£à¸²à¸¢à¸ģà¸²à¸£à¸ķ"
      ],
      [
        "à¸Ńà¸ĩà¸£à¸°",
        "à¸§"
      ],
      [
        "install",
        "ed"
      ],
      [
        "à¸Ńà¸¢à¹Ħà¸Ľ",
        "à¸¡à¸²à¸ģ"
      ],
      [
        "à¸Ńà¸ļà¸Ļà¸Ĳà¸²à¸Ļ",
        "à¹ĥà¸«à¸¡"
      ],
      [
        "retr",
        "ies"
      ],
      [
        "à¸ļà¸ļà¸²à¸ĩà¸Ľà¸£à¸°",
        "à¹Ģà¸łà¸Ĺ"
      ],
      [
        "Ġfail",
        "ed"
      ],
      [
        "isal",
        "num"
      ],
      [
        "Ġà¹ģà¸¢à¸ģ",
        "à¸Ĥ"
      ],
      [
        "à¸Ħà¸³à¹ĥà¸Ļ",
        "à¸Ĥ"
      ],
      [
        "Ġà¸«à¸²à¸ľà¸¥",
        "à¸£à¸§à¸¡à¸Ĥà¸Ńà¸ĩà¸ķ"
      ],
      [
        "Ġà¸ķà¸²à¸£à¸²à¸ĩ",
        "à¹ģà¸ļà¸ļà¸ĩ"
      ],
      [
        "à¸Ńà¸£à¸§à¸¡",
        "à¸¡à¸²à¸ģà¸ģà¸§"
      ],
      [
        "Ġaver",
        "age"
      ],
      [
        "Ġexcep",
        "t"
      ],
      [
        "Ġà¹ģà¸¥à¸°à¸Ħà¸§à¸²à¸¡",
        "à¸¥"
      ],
      [
        "Ġ'([",
        "^,]+)')"
      ],
      [
        "Ġuniq",
        "ue"
      ],
      [
        "à¹Ģà¸¡à¸¥à¹ģà¸ļà¸ļ",
        "à¸ŀ"
      ],
      [
        "ĠExcep",
        "tion"
      ],
      [
        "Ġartifa",
        "ct"
      ],
      [
        "\"",
        ")"
      ],
      [
        "0",
        "1"
      ],
      [
        "0",
        "2"
      ],
      [
        "0",
        "4"
      ],
      [
        "0",
        "5"
      ],
      [
        "0",
        "6"
      ],
      [
        "0",
        "7"
      ],
      [
        "0",
        "9"
      ],
      [
        "2",
        "7"
      ],
      [
        "2",
        "8"
      ],
      [
        "2",
        "9"
      ],
      [
        "5",
        "0"
      ],
      [
        "5",
        "1"
      ],
      [
        "5",
        "2"
      ],
      [
        "5",
        "3"
      ],
      [
        "5",
        "7"
      ],
      [
        "5",
        "8"
      ],
      [
        "5",
        "9"
      ],
      [
        "e",
        "male"
      ],
      [
        "i",
        "ke"
      ],
      [
        "n",
        "a"
      ],
      [
        "p",
        "h"
      ],
      [
        "Ġ",
        "R"
      ],
      [
        "Ġ",
        "à¸£"
      ],
      [
        "à¸",
        "ī"
      ],
      [
        "à¸",
        "łà¸²à¸"
      ],
      [
        "à¸Ńà¸",
        "§"
      ],
      [
        "à¸Ļ",
        "à¸Īà¸°"
      ],
      [
        "à¹Ģà¸",
        "Ī"
      ],
      [
        "Ġs",
        "i"
      ],
      [
        "à¸Ńà¸ļ",
        "à¸Ħ"
      ],
      [
        "an",
        "ce"
      ],
      [
        "Ġf",
        "ri"
      ],
      [
        "Ġl",
        "ike"
      ],
      [
        "tur",
        "al"
      ],
      [
        "à¸Ĺà¸³",
        "à¸ĩà¸²à¸Ļ"
      ],
      [
        "Ġa",
        "f"
      ],
      [
        "Ġà¸Ī",
        "à¸°"
      ],
      [
        "mp",
        "le"
      ],
      [
        "at",
        "ing"
      ],
      [
        "sh",
        "ip"
      ],
      [
        "Ġch",
        "ang"
      ],
      [
        "li",
        "c"
      ],
      [
        "Ġy",
        "et"
      ],
      [
        "lass",
        "ifi"
      ],
      [
        "Ġr",
        "ice"
      ],
      [
        "Ġpartic",
        "les"
      ],
      [
        "Ġsent",
        "ence"
      ],
      [
        "ĠâĨ",
        "Ĵ"
      ],
      [
        "Ġdif",
        "fer"
      ],
      [
        "à¸łà¸²à¸",
        "ŀ"
      ],
      [
        "'",
        "s"
      ],
      [
        "e",
        "o"
      ],
      [
        "k",
        "h"
      ],
      [
        "l",
        "a"
      ],
      [
        "m",
        "ai"
      ],
      [
        "o",
        "int"
      ],
      [
        "o",
        "ok"
      ],
      [
        "r",
        "un"
      ],
      [
        "s",
        "o"
      ],
      [
        "y",
        "al"
      ],
      [
        "y",
        "ste"
      ],
      [
        "Ġ",
        "ro"
      ],
      [
        "Ġ",
        "qu"
      ],
      [
        "Ġ",
        "Re"
      ],
      [
        "à¸²à¸",
        "ļ"
      ],
      [
        "à¸Ļ",
        "à¹Ħà¸Ľ"
      ],
      [
        "à¸Ļ",
        "à¸Ħà¸³à¸ª"
      ],
      [
        "à¸ļ",
        "à¸Ĥ"
      ],
      [
        "à¸ļ",
        "à¸ģà¸§"
      ],
      [
        "à¹Ģà¸",
        "Ĭ"
      ],
      [
        "à¸ķ",
        "à¸ĸ"
      ],
      [
        "à¸§",
        "à¸Ĺ"
      ],
      [
        "à¹ģ",
        "à¸Ī"
      ],
      [
        "Ġs",
        "p"
      ],
      [
        "Ġs",
        "ame"
      ],
      [
        "Ġs",
        "ound"
      ],
      [
        "de",
        "l"
      ],
      [
        "Ġc",
        "an"
      ],
      [
        "Ġc",
        "lose"
      ],
      [
        "Ġt",
        "on"
      ],
      [
        "Ġre",
        "l"
      ],
      [
        "Ġl",
        "e"
      ],
      [
        "Ġà¹Ģà¸Ĥ",
        "à¸²"
      ],
      [
        "Ġin",
        "he"
      ],
      [
        "ul",
        "ary"
      ],
      [
        "Ġa",
        "d"
      ],
      [
        "us",
        "t"
      ],
      [
        "tr",
        "al"
      ],
      [
        "à¸¶",
        "à¹Ī"
      ],
      [
        "ab",
        "ulary"
      ],
      [
        "ers",
        "on"
      ],
      [
        "ĠT",
        "his"
      ],
      [
        "Ġcomm",
        "on"
      ],
      [
        "ig",
        "n"
      ],
      [
        "à¹Ĥà¸Ķà¸¢",
        "à¹Ģà¸£"
      ],
      [
        "son",
        "ant"
      ],
      [
        "à¸ĵ",
        "à¸Ĺ"
      ],
      [
        "ĠN",
        "o"
      ],
      [
        "ver",
        "y"
      ],
      [
        "oc",
        "abulary"
      ],
      [
        "Ġcontext",
        "s"
      ],
      [
        "Ġformal",
        "ity"
      ],
      [
        "igh",
        "t"
      ],
      [
        "iz",
        "ed"
      ],
      [
        "à¸Ĺà¸£",
        "à¸²à¸ļ"
      ],
      [
        "Ġwrit",
        "ten"
      ],
      [
        "ati",
        "ve"
      ],
      [
        "xa",
        "mple"
      ],
      [
        "Ġam",
        "ong"
      ],
      [
        "Ġmean",
        "ing"
      ],
      [
        "Ġfri",
        "ends"
      ],
      [
        "Ġdiffer",
        "ent"
      ],
      [
        "yste",
        "m"
      ],
      [
        "à¸ļà¸ģà¸§",
        "à¸Ļà¸ª"
      ],
      [
        ".",
        ","
      ],
      [
        "E",
        "T"
      ],
      [
        "F",
        "unction"
      ],
      [
        "G",
        "it"
      ],
      [
        "L",
        "o"
      ],
      [
        "O",
        "ST"
      ],
      [
        "T",
        "P"
      ],
      [
        "T",
        "TP"
      ],
      [
        "U",
        "T"
      ],
      [
        "c",
        "on"
      ],
      [
        "c",
        "tion"
      ],
      [
        "c",
        "ap"
      ],
      [
        "g",
        "er"
      ],
      [
        "i",
        "or"
      ],
      [
        "m",
        "it"
      ],
      [
        "o",
        "uld"
      ],
      [
        "p",
        "oint"
      ],
      [
        "s",
        "he"
      ],
      [
        "s",
        "ul"
      ],
      [
        "t",
        "and"
      ],
      [
        "u",
        "de"
      ],
      [
        "u",
        "ct"
      ],
      [
        "Ġ",
        "al"
      ],
      [
        "Ġ",
        "one"
      ],
      [
        "Ġ",
        "OOP"
      ],
      [
        "Ġ",
        "REST"
      ],
      [
        "Ĵ",
        "à¸Ļ"
      ],
      [
        "à¸",
        "Ĵà¸Ļ"
      ],
      [
        "à¸²",
        "à¹ģ"
      ],
      [
        "à¸²",
        "à¸Ńà¸¢"
      ],
      [
        "à¸²",
        "à¹Ħà¸Ķ"
      ],
      [
        "à¸²",
        "à¹ĥà¸«"
      ],
      [
        "à¸²",
        "à¹Ĥà¸Ħ"
      ],
      [
        "à¸Ń",
        "à¸Ń"
      ],
      [
        "à¸Ń",
        "à¹ģà¸Ļà¸§"
      ],
      [
        "à¸²à¸",
        "Ħà¸£"
      ],
      [
        "à¸£",
        "à¸ļà¸ģà¸§à¸Ļà¸ª"
      ],
      [
        "à¸Ļ",
        "à¸ľ"
      ],
      [
        "à¸Ļ",
        "à¹Ģà¸Ĥ"
      ],
      [
        "à¸Ļ",
        "à¸«à¸¥"
      ],
      [
        "à¹Ģ",
        "à¸Ńà¸ĩ"
      ],
      [
        "à¸ļ",
        "à¸«à¸Ļ"
      ],
      [
        "à¸ķ",
        "à¸Ħà¸§à¸²à¸¡"
      ],
      [
        "à¸¥",
        "à¸Ńà¸ĩ"
      ],
      [
        "à¸¥",
        "à¹ģà¸¥à¸°"
      ],
      [
        "à¸ģ",
        "à¸Ĺ"
      ],
      [
        "à¸ģ",
        "à¸Ńà¸¢"
      ],
      [
        "à¸ģ",
        "à¸ĸ"
      ],
      [
        "à¸ģ",
        "à¹Ģà¸£"
      ],
      [
        "à¸ģ",
        "à¹Ģà¸«à¸ķ"
      ],
      [
        "à¸ģ",
        "à¸Ħà¸³à¸ª"
      ],
      [
        "à¸µ",
        "."
      ],
      [
        "Ġà¸",
        "¡"
      ],
      [
        "à¸§",
        "à¸Ļà¸Ĺ"
      ],
      [
        "à¸§",
        "à¹Ģà¸Ńà¸ĩ"
      ],
      [
        "à¹ģ",
        "à¸Ĺà¸£"
      ],
      [
        "à¸ĩ",
        "à¹Ħà¸Ķ"
      ],
      [
        "à¸ĩ",
        "à¹Ģà¸«à¸¡à¸²à¸°à¸ģ"
      ],
      [
        "à¸ĩ",
        "à¹Ĩ"
      ],
      [
        "à¸Ĺ",
        "à¸ļ"
      ],
      [
        "à¸¡",
        "à¸ĩà¸²à¸Ļà¸ģ"
      ],
      [
        "à¸Ķ",
        "à¸ª"
      ],
      [
        "à¸Ķ",
        "à¸ģà¸²à¸£"
      ],
      [
        "à¸Ķ",
        "à¸Ħà¸£"
      ],
      [
        "à¸Ķ",
        "à¹Ģà¸Ľ"
      ],
      [
        "à¸Ķ",
        "à¹Ĥà¸Ħ"
      ],
      [
        "à¸Ķ",
        "à¸Ħà¸³à¸ª"
      ],
      [
        "à¸Ķ",
        "à¹Ĥà¸Ķà¸¢"
      ],
      [
        "à¸Ķ",
        "à¸ģà¸²à¸£à¹Ģà¸£"
      ],
      [
        "à¸Ķ",
        "à¸¥à¸Ńà¸ĩ"
      ],
      [
        "à¸Ħ",
        "à¸²à¸Ķ"
      ],
      [
        "à¸Ħ",
        "à¸§à¸²à¸¡à¸ľ"
      ],
      [
        "à¸Ħ",
        "à¸ĩà¸Ĺ"
      ],
      [
        "à¸Ħ",
        "à¸Ļà¹Ģà¸£"
      ],
      [
        "à¸¢",
        "à¸§à¸Ĥ"
      ],
      [
        "à¸Ńà¸ĩ",
        "à¸ģ"
      ],
      [
        "à¸°",
        "à¸Ļ"
      ],
      [
        "Ġs",
        "ign"
      ],
      [
        "à¸²à¸¢",
        "à¸Ĥ"
      ],
      [
        "à¸²à¸Ļ",
        "à¸«à¸£"
      ],
      [
        "à¸Ľ",
        "à¹Ģà¸Ķ"
      ],
      [
        "th",
        "e"
      ],
      [
        "à¸Ńà¸¢",
        "à¸Ĥà¸Ńà¸ĩà¸Ľ"
      ],
      [
        "à¸²à¸ĩ",
        "à¸ª"
      ],
      [
        "à¸²à¸ĩ",
        "à¹ģà¸¥"
      ],
      [
        "à¸²à¸ĩ",
        "à¸ģà¸²à¸£"
      ],
      [
        "à¸²à¸ĩ",
        "à¹Ħà¸£"
      ],
      [
        "à¸ģà¸²à¸£",
        "à¸ĵ"
      ],
      [
        "à¸Ī",
        "à¸ļ"
      ],
      [
        "à¸Ī",
        "à¸¡à¸ķ"
      ],
      [
        "à¹Ĥ",
        "à¸Īà¸¡à¸ķ"
      ],
      [
        "Ġc",
        "ase"
      ],
      [
        "à¸Ńà¸ĩà¸ģà¸²à¸£",
        "à¸Ħà¸ĩà¸Ĺ"
      ],
      [
        "LE",
        "TE"
      ],
      [
        "er",
        "y"
      ],
      [
        "er",
        "ized"
      ],
      [
        "à¸²à¸¡",
        "à¸²à¸Ħà¸£"
      ],
      [
        "à¸²à¸ģ",
        "à¸³à¸¥"
      ],
      [
        "à¸ĩà¸²à¸Ļ",
        "à¸«à¸¥"
      ],
      [
        "en",
        "ces"
      ],
      [
        "ĠP",
        "OST"
      ],
      [
        "ĠP",
        "UT"
      ],
      [
        "à¹ģà¸ļà¸ļ",
        "à¸ģà¸³"
      ],
      [
        "à¸Ĥ",
        "à¸Ńà¸ļà¸Ħ"
      ],
      [
        "Ġp",
        "l"
      ],
      [
        "Ġp",
        "erson"
      ],
      [
        "is",
        "ing"
      ],
      [
        "al",
        "e"
      ],
      [
        "à¸Ńà¸Ļ",
        "à¸«à¸¥"
      ],
      [
        "à¸¢à¸Ļ",
        "à¹Ĥà¸Ľà¸£à¹ģà¸ģà¸£à¸¡"
      ],
      [
        "à¸§à¸¢",
        "à¸ļ"
      ],
      [
        "à¸§à¸¢",
        "à¸§"
      ],
      [
        "à¸§à¸¢",
        "à¸Ħà¸£"
      ],
      [
        "à¸§à¸¢",
        "à¸ķà¸Ńà¸ļ"
      ],
      [
        "Ġre",
        "cursion"
      ],
      [
        "Ġre",
        "gister"
      ],
      [
        "à¸ģà¸§",
        "à¸¡à¸§"
      ],
      [
        "à¸łà¸²à¸©",
        "à¸²à¸ĩ"
      ],
      [
        "à¸ªà¸³",
        "à¸Ħ"
      ],
      [
        "à¸ĸà¸²à¸¡",
        "à¹ģà¸ļà¸ļà¸ģà¸³"
      ],
      [
        "à¸Ļà¸Ĺ",
        "à¸²à¸ĩà¸ģà¸²à¸£"
      ],
      [
        "et",
        "erized"
      ],
      [
        "à¸Ĺà¸³",
        "à¸Ł"
      ],
      [
        "Ġà¸ª",
        "à¸£"
      ],
      [
        "à¸¥à¸ĩ",
        "à¸¥"
      ],
      [
        "à¸Ļà¸¡",
        "à¸²à¸ģ"
      ],
      [
        "Ġn",
        "ormal"
      ],
      [
        "Ġà¹ģà¸¥à¸°",
        "à¸§"
      ],
      [
        "Ġà¹ģà¸¥à¸°",
        "à¸Īà¸°"
      ],
      [
        "Ġlo",
        "gging"
      ],
      [
        "Ġd",
        "on"
      ],
      [
        "Ġw",
        "ould"
      ],
      [
        "eu",
        "tral"
      ],
      [
        "Ġà¸Ĥ",
        "à¸ĵ"
      ],
      [
        "Ġà¹Ĥà¸Ķà¸¢",
        "à¸ķ"
      ],
      [
        "Ġà¹Ĥà¸Ķà¸¢",
        "à¹ĥà¸Ĭ"
      ],
      [
        "à¸ļà¸ľ",
        "à¸¥à¸¥"
      ],
      [
        "Ġv",
        "owel"
      ],
      [
        "Ġv",
        "ocabulary"
      ],
      [
        "à¹Ħà¸Ĥ",
        "à¸Ĥ"
      ],
      [
        "à¸Ńà¸Ĺ",
        "à¸Ķà¸¥à¸Ńà¸ĩ"
      ],
      [
        "oun",
        "ger"
      ],
      [
        "à¸¥à¸Ńà¸ģ",
        "à¹ĥà¸«"
      ],
      [
        "at",
        "er"
      ],
      [
        "à¸ķà¸Ńà¸ļ",
        "à¸Ńà¸¢"
      ],
      [
        "Ġbas",
        "e"
      ],
      [
        "à¸ģà¸£à¸°",
        "à¸Ĺà¸ļ"
      ],
      [
        "à¸ĩà¸¡",
        "à¸²à¸Ķ"
      ],
      [
        "mb",
        "ig"
      ],
      [
        "à¸¢à¸ģ",
        "à¹ĥà¸Ĭ"
      ],
      [
        "à¸¢à¸ģ",
        "à¸Īà¸²à¸ģ"
      ],
      [
        "à¸Ķà¸ŀà¸¥à¸²à¸Ķ",
        "à¸¢"
      ],
      [
        "Ġend",
        "point"
      ],
      [
        "ĠT",
        "he"
      ],
      [
        "Ġà¸Ħà¸§à¸£",
        "à¸ķà¸Ńà¸ļà¸Ńà¸¢"
      ],
      [
        "Ġg",
        "ramm"
      ],
      [
        "Ġun",
        "ders"
      ],
      [
        "bl",
        "ing"
      ],
      [
        "à¹Ĥà¸Ķà¸¢",
        "à¸Ī"
      ],
      [
        "à¹Ĥà¸Ķà¸¢",
        "à¸ķà¸£à¸ĩ"
      ],
      [
        "à¸ĩà¸ª",
        "à¸£"
      ],
      [
        "Ġà¹ģà¸ļà¸ļ",
        "à¹Ħà¸¡"
      ],
      [
        "Ġà¹ģà¸ļà¸ļ",
        "à¸łà¸²à¸©à¸²à¸ĩ"
      ],
      [
        "Re",
        "cursion"
      ],
      [
        "si",
        "ve"
      ],
      [
        "à¸§à¸¡",
        "à¸ģ"
      ],
      [
        "à¸Ĥà¸Ńà¸ĩ",
        "à¹Ĥà¸Ľà¸£à¹ģà¸ģà¸£à¸¡"
      ],
      [
        "ter",
        "n"
      ],
      [
        "à¸ĵ",
        "à¸Ĺà¸£à¸²à¸ļ"
      ],
      [
        "Ġen",
        "cap"
      ],
      [
        "am",
        "eterized"
      ],
      [
        "à¸į",
        "à¸Ĥà¸Ńà¸ĩ"
      ],
      [
        "ĠDE",
        "LETE"
      ],
      [
        "à¸²à¹Ģà¸£",
        "à¸²à¸ģà¸³à¸¥"
      ],
      [
        "à¸²à¹Ħà¸Ľ",
        "à¸ģ"
      ],
      [
        "à¸įà¸«",
        "à¸²à¸¢"
      ],
      [
        "fi",
        "c"
      ],
      [
        "Ġne",
        "ed"
      ],
      [
        "Ġclass",
        "ifi"
      ],
      [
        "Ġpar",
        "ameterized"
      ],
      [
        "à¸įà¸«à¸²",
        "à¹ĥà¸«"
      ],
      [
        "à¸įà¸«à¸²",
        "à¹Ģà¸Ķ"
      ],
      [
        "rit",
        "ance"
      ],
      [
        "Ġon",
        "ly"
      ],
      [
        "à¸£à¸°à¸ļà¸ļ",
        "à¸£"
      ],
      [
        "ĠG",
        "ET"
      ],
      [
        "à¸§à¸Ļ",
        "à¹Ħà¸¡"
      ],
      [
        "à¸ķà¸£à¸§à¸Īà¸ªà¸Ńà¸ļ",
        "à¸Ľ"
      ],
      [
        "à¹Ĥà¸Ľà¸£à¹ģà¸ģà¸£à¸¡",
        "à¸Ħ"
      ],
      [
        "à¸ļà¸²à¸¢à¸Ħà¸§à¸²à¸¡",
        "à¸ªà¸³à¸Ħ"
      ],
      [
        "Ġmark",
        "s"
      ],
      [
        "ĠH",
        "TTP"
      ],
      [
        "à¸Ħà¸§à¸£",
        "à¸£"
      ],
      [
        "Ġwhe",
        "re"
      ],
      [
        "à¸Ķà¸ķà¸²à¸¡",
        "à¸ŀà¸¤à¸ķ"
      ],
      [
        "Ġgo",
        "od"
      ],
      [
        "Ġgen",
        "der"
      ],
      [
        "à¸Ńà¸«",
        "à¸¢"
      ],
      [
        "à¸Ńà¸«",
        "à¸¥à¸Ńà¸ģà¹ĥà¸«"
      ],
      [
        "Ġpronoun",
        "s"
      ],
      [
        "Ġpartic",
        "le"
      ],
      [
        "à¸²à¹ĥà¸Ī",
        "à¹Ģà¸£"
      ],
      [
        "Ġso",
        "me"
      ],
      [
        "à¸ĩà¸ķà¸£à¸§à¸Īà¸ªà¸Ńà¸ļ",
        "à¸Ľ"
      ],
      [
        "à¸ĩà¸ķà¸£à¸§à¸Īà¸ªà¸Ńà¸ļ",
        "à¸ªà¸²à¹Ģà¸«à¸ķ"
      ],
      [
        "à¸ģà¸£à¸£à¸¡",
        "à¸£"
      ],
      [
        "à¸ģà¸£à¸£à¸¡",
        "à¸Ĥà¸Ńà¸ĩà¹Ĥà¸Ľà¸£à¹ģà¸ģà¸£à¸¡"
      ],
      [
        "Ġà¸Ĺà¸³",
        "à¹ĥà¸«"
      ],
      [
        "Ġspea",
        "ker"
      ],
      [
        "à¸Ļà¸Īà¸°",
        "à¸§à¸Ļà¹Ħà¸¡"
      ],
      [
        "à¹Ģà¸Ī",
        "à¸Ńà¸£"
      ],
      [
        "Ġsi",
        "bling"
      ],
      [
        "Ġaf",
        "ter"
      ],
      [
        "Ġà¸Īà¸°",
        "à¸Ĭ"
      ],
      [
        "à¸łà¸²à¸ŀ",
        "à¸§"
      ],
      [
        "ook",
        "s"
      ],
      [
        "Ġqu",
        "ery"
      ],
      [
        "Ġsp",
        "ac"
      ],
      [
        "Ġinhe",
        "ritance"
      ],
      [
        "Lo",
        "gging"
      ],
      [
        "sul",
        "ation"
      ],
      [
        "uct",
        "ure"
      ],
      [
        "à¸Ĵà¸Ļ",
        "à¸²à¹ģ"
      ],
      [
        "à¸Ńà¹ģà¸Ļà¸§",
        "à¸Ħ"
      ],
      [
        "à¸ķà¸Ħà¸§à¸²à¸¡",
        "à¸Ħ"
      ],
      [
        "à¸¥à¹ģà¸¥à¸°",
        "à¸ŀà¸¤à¸ķ"
      ],
      [
        "à¸§à¹Ģà¸Ńà¸ĩ",
        "à¹Ģà¸ŀ"
      ],
      [
        "à¹ģà¸Ĺà¸£",
        "à¸ģà¸Ħà¸³à¸ª"
      ],
      [
        "à¸¡à¸ĩà¸²à¸Ļà¸ģ",
        "à¸³à¸¥"
      ],
      [
        "à¸Ķà¸ģà¸²à¸£",
        "à¹Ģà¸Ĥ"
      ],
      [
        "à¸Ķà¹Ĥà¸Ķà¸¢",
        "à¹Ħà¸¡"
      ],
      [
        "à¸Ħà¸²à¸Ķ",
        "à¸«à¸§"
      ],
      [
        "à¸Ľà¹Ģà¸Ķ",
        "à¸ķà¸Ħà¸§à¸²à¸¡à¸Ħ"
      ],
      [
        "à¸¢à¸Ļà¹Ĥà¸Ľà¸£à¹ģà¸ģà¸£à¸¡",
        "à¹Ĥà¸Ķà¸¢à¸Ī"
      ],
      [
        "à¸§à¸¢à¸ķà¸Ńà¸ļ",
        "à¸¥"
      ],
      [
        "à¸ĸà¸²à¸¡à¹ģà¸ļà¸ļà¸ģà¸³",
        "à¸ģà¸§à¸¡à¸§"
      ],
      [
        "à¸Ļà¸Ĺà¸²à¸ĩà¸ģà¸²à¸£",
        "à¸ŀ"
      ],
      [
        "Ġà¹ģà¸¥à¸°à¸Īà¸°",
        "à¸Ń"
      ],
      [
        "Ġà¸Ĥà¸ĵ",
        "à¸°à¸Ļ"
      ],
      [
        "à¸Ńà¸Ĺà¸Ķà¸¥à¸Ńà¸ĩ",
        "à¹ģà¸ģ"
      ],
      [
        "à¸¢à¸ģà¸Īà¸²à¸ģ",
        "à¸ĩà¸²à¸Ļà¸«à¸¥"
      ],
      [
        "Ġunders",
        "tand"
      ],
      [
        "à¸ĵà¸Ĺà¸£à¸²à¸ļ",
        "à¹Ĥà¸Ķà¸¢à¹Ģà¸£"
      ],
      [
        "Ġencap",
        "sulation"
      ],
      [
        "à¸Ĵà¸Ļà¸²à¹ģ",
        "à¸¢à¸ģà¸Īà¸²à¸ģà¸ĩà¸²à¸Ļà¸«à¸¥"
      ],
      [
        "'",
        "m"
      ],
      [
        ")",
        "**:"
      ],
      [
        "N",
        "o"
      ],
      [
        "Q",
        "u"
      ],
      [
        "U",
        "s"
      ],
      [
        "a",
        "f"
      ],
      [
        "a",
        "k"
      ],
      [
        "c",
        "i"
      ],
      [
        "c",
        "asual"
      ],
      [
        "e",
        "ar"
      ],
      [
        "f",
        "ul"
      ],
      [
        "f",
        "ten"
      ],
      [
        "g",
        "ment"
      ],
      [
        "h",
        "as"
      ],
      [
        "k",
        "s"
      ],
      [
        "k",
        "ha"
      ],
      [
        "t",
        "y"
      ],
      [
        "t",
        "ua"
      ],
      [
        "t",
        "ing"
      ],
      [
        "t",
        "ers"
      ],
      [
        "Ġ",
        "j"
      ],
      [
        "Ġ",
        "es"
      ],
      [
        "à¹",
        "Ĭ"
      ],
      [
        "Ġà¸",
        "¢"
      ],
      [
        "Ġs",
        "ep"
      ],
      [
        "or",
        "rect"
      ],
      [
        "or",
        "row"
      ],
      [
        "Ġà¹Ģà¸",
        "¡"
      ],
      [
        "Ġà¹Ģà¸",
        "¥"
      ],
      [
        "Ġà¹Ģà¸",
        "Ķ"
      ],
      [
        "er",
        "al"
      ],
      [
        "en",
        "ess"
      ],
      [
        "ĠP",
        "ar"
      ],
      [
        "ing",
        "s"
      ],
      [
        "Ġf",
        "emale"
      ],
      [
        "Ġp",
        "e"
      ],
      [
        "ur",
        "al"
      ],
      [
        "Ġde",
        "pending"
      ],
      [
        "tion",
        "s"
      ],
      [
        "Ġco",
        "de"
      ],
      [
        "Ġco",
        "mp"
      ],
      [
        "Ġb",
        "ooks"
      ],
      [
        "Ġ(",
        "\""
      ],
      [
        "Ġe",
        "mp"
      ],
      [
        "Ġo",
        "ut"
      ],
      [
        "Ġm",
        "u"
      ],
      [
        "Ġm",
        "on"
      ],
      [
        "Ġm",
        "ale"
      ],
      [
        "le",
        "ase"
      ],
      [
        "ar",
        "d"
      ],
      [
        "ar",
        "ate"
      ],
      [
        "us",
        "e"
      ],
      [
        "it",
        "eness"
      ],
      [
        "Ġv",
        "s"
      ],
      [
        "Ġcon",
        "sonant"
      ],
      [
        "um",
        "b"
      ],
      [
        "ch",
        "ing"
      ],
      [
        "oun",
        "s"
      ],
      [
        "ent",
        "s"
      ],
      [
        "Ġtrans",
        "l"
      ],
      [
        "ation",
        "ship"
      ],
      [
        "angua",
        "ge"
      ],
      [
        "Ġend",
        "ing"
      ],
      [
        "Ġstr",
        "ucture"
      ],
      [
        "all",
        "ing"
      ],
      [
        "all",
        "el"
      ],
      [
        "Ġto",
        "day"
      ],
      [
        "Ġor",
        "der"
      ],
      [
        "ate",
        "s"
      ],
      [
        "Ġthe",
        "m"
      ],
      [
        "ĠC",
        "on"
      ],
      [
        "ĠC",
        "lassifi"
      ],
      [
        "Ġr",
        "ising"
      ],
      [
        "Ġse",
        "gment"
      ],
      [
        "bj",
        "ect"
      ],
      [
        "Ġus",
        "e"
      ],
      [
        "Ġus",
        "ing"
      ],
      [
        "Ġof",
        "fic"
      ],
      [
        "ic",
        "k"
      ],
      [
        "iz",
        "ation"
      ],
      [
        "Ġeat",
        "en"
      ],
      [
        "Ġmo",
        "del"
      ],
      [
        "Ġwrit",
        "ing"
      ],
      [
        "ug",
        "h"
      ],
      [
        "Ġph",
        "one"
      ],
      [
        "Ġab",
        "out"
      ],
      [
        "Ġchang",
        "es"
      ],
      [
        "Ġro",
        "yal"
      ],
      [
        "Ġrel",
        "ationship"
      ],
      [
        "Ġsign",
        "al"
      ],
      [
        "mbig",
        "u"
      ],
      [
        "Ġclassifi",
        "er"
      ],
      [
        "Ġspac",
        "es"
      ],
      [
        "has",
        "is"
      ],
      [
        "Ġsep",
        "arate"
      ],
      [
        "Ġemp",
        "hasis"
      ],
      [
        "Ġsegment",
        "ation"
      ],
      [
        "Ġoffic",
        "ial"
      ],
      [
        ".",
        "\""
      ],
      [
        "E",
        "xample"
      ],
      [
        "H",
        "ave"
      ],
      [
        "T",
        "one"
      ],
      [
        "V",
        "owel"
      ],
      [
        "a",
        "ct"
      ],
      [
        "a",
        "ke"
      ],
      [
        "a",
        "uti"
      ],
      [
        "a",
        "tic"
      ],
      [
        "a",
        "use"
      ],
      [
        "a",
        "ugh"
      ],
      [
        "b",
        "le"
      ],
      [
        "e",
        "w"
      ],
      [
        "e",
        "en"
      ],
      [
        "f",
        "l"
      ],
      [
        "f",
        "in"
      ],
      [
        "f",
        "emale"
      ],
      [
        "g",
        "o"
      ],
      [
        "g",
        "th"
      ],
      [
        "g",
        "et"
      ],
      [
        "i",
        "r"
      ],
      [
        "i",
        "v"
      ],
      [
        "i",
        "x"
      ],
      [
        "i",
        "on"
      ],
      [
        "m",
        "ult"
      ],
      [
        "m",
        "all"
      ],
      [
        "m",
        "ic"
      ],
      [
        "n",
        "ing"
      ],
      [
        "o",
        "s"
      ],
      [
        "o",
        "us"
      ],
      [
        "o",
        "log"
      ],
      [
        "o",
        "si"
      ],
      [
        "o",
        "ice"
      ],
      [
        "r",
        "ude"
      ],
      [
        "s",
        "a"
      ],
      [
        "u",
        "b"
      ],
      [
        "v",
        "en"
      ],
      [
        "v",
        "al"
      ],
      [
        "w",
        "een"
      ],
      [
        "y",
        "ll"
      ],
      [
        "y",
        "one"
      ],
      [
        "Ġ",
        "à¹Ģ"
      ],
      [
        "Ġ",
        "à¹ĥ"
      ],
      [
        "Ġ",
        "te"
      ],
      [
        "Ġ",
        "Er"
      ],
      [
        "Ġ",
        "à¹Ħà¸«à¸¡"
      ],
      [
        "Ġ",
        "Us"
      ],
      [
        "à¹",
        "ĭ"
      ],
      [
        "à¸Ļ",
        "à¸²à¸¡"
      ],
      [
        "à¸´",
        "à¹ī"
      ],
      [
        "à¸ĩ",
        "à¸²à¸¡"
      ],
      [
        "à¹Ħ",
        "à¸«à¸£"
      ],
      [
        "à¸¢",
        "à¸§"
      ],
      [
        "à¸ª",
        "à¸Ķ"
      ],
      [
        "in",
        "formal"
      ],
      [
        "in",
        "ess"
      ],
      [
        "in",
        "ship"
      ],
      [
        "Ġs",
        "l"
      ],
      [
        "Ġs",
        "ing"
      ],
      [
        "Ġs",
        "ystem"
      ],
      [
        "Ġs",
        "mall"
      ],
      [
        "Ġs",
        "ub"
      ],
      [
        "ĠS",
        "ystem"
      ],
      [
        "de",
        "e"
      ],
      [
        "Ġc",
        "orrect"
      ],
      [
        "an",
        "s"
      ],
      [
        "an",
        "words"
      ],
      [
        "an",
        "eo"
      ],
      [
        "en",
        "se"
      ],
      [
        "re",
        "d"
      ],
      [
        "ti",
        "cal"
      ],
      [
        "Ġf",
        "re"
      ],
      [
        "Ġf",
        "alling"
      ],
      [
        "Ġt",
        "er"
      ],
      [
        "Ġde",
        "ter"
      ],
      [
        "Ġde",
        "lic"
      ],
      [
        "tion",
        "al"
      ],
      [
        "Ġb",
        "et"
      ],
      [
        "Ġb",
        "ound"
      ],
      [
        "Ġb",
        "ec"
      ],
      [
        "Ġà¸Ħ",
        "à¸Ļ"
      ],
      [
        "Ġà¸ª",
        "à¸§"
      ],
      [
        "Ġa",
        "ge"
      ],
      [
        "es",
        "e"
      ],
      [
        "Ġe",
        "x"
      ],
      [
        "Ġe",
        "ven"
      ],
      [
        "Ġn",
        "on"
      ],
      [
        "Ġn",
        "eutral"
      ],
      [
        "Ġn",
        "ouns"
      ],
      [
        "Ġo",
        "mit"
      ],
      [
        "Ġm",
        "at"
      ],
      [
        "Ġm",
        "ore"
      ],
      [
        "Ġlo",
        "w"
      ],
      [
        "Ġlo",
        "anwords"
      ],
      [
        "Ġd",
        "ro"
      ],
      [
        "Ġw",
        "ater"
      ],
      [
        "us",
        "ly"
      ],
      [
        "us",
        "iness"
      ],
      [
        "tr",
        "ac"
      ],
      [
        "Ġcon",
        "j"
      ],
      [
        "um",
        "ents"
      ],
      [
        "à¸ģà¸©",
        "à¸ĵ"
      ],
      [
        "at",
        "tern"
      ],
      [
        "and",
        "ard"
      ],
      [
        "ent",
        "ence"
      ],
      [
        "ac",
        "ed"
      ],
      [
        "Ġ2",
        "56"
      ],
      [
        "Ġth",
        "at"
      ],
      [
        "Ġth",
        "ings"
      ],
      [
        "ang",
        "ers"
      ],
      [
        "**",
        ","
      ],
      [
        "di",
        "a"
      ],
      [
        "Ġdo",
        "es"
      ],
      [
        "ay",
        "s"
      ],
      [
        "pe",
        "ct"
      ],
      [
        "pe",
        "ci"
      ],
      [
        "ĠT",
        "one"
      ],
      [
        "ĠT",
        "ra"
      ],
      [
        "Ġstr",
        "angers"
      ],
      [
        "mm",
        "on"
      ],
      [
        "Ġg",
        "et"
      ],
      [
        "Ġwor",
        "k"
      ],
      [
        "Ġch",
        "oice"
      ],
      [
        "ate",
        "ment"
      ],
      [
        "der",
        "n"
      ],
      [
        "ĠF",
        "ormal"
      ],
      [
        "Ġy",
        "es"
      ],
      [
        "Ġy",
        "ounger"
      ],
      [
        "op",
        "le"
      ],
      [
        "ol",
        "iteness"
      ],
      [
        "Ġr",
        "ul"
      ],
      [
        "Ġh",
        "igh"
      ],
      [
        "Ġme",
        "dia"
      ],
      [
        "Ġof",
        "ten"
      ],
      [
        "low",
        "ly"
      ],
      [
        "tic",
        "les"
      ],
      [
        "Ġst",
        "andard"
      ],
      [
        "Ġst",
        "atement"
      ],
      [
        "io",
        "us"
      ],
      [
        "oc",
        "ial"
      ],
      [
        "|---",
        "|"
      ],
      [
        "à¸²à¸§",
        "à¸«à¸£"
      ],
      [
        "Ġobject",
        "s"
      ],
      [
        "Ġit",
        "s"
      ],
      [
        "Ġverb",
        "s"
      ],
      [
        "Ġbe",
        "auti"
      ],
      [
        "ĠH",
        "e"
      ],
      [
        "ĠH",
        "ow"
      ],
      [
        "|---|---",
        "|"
      ],
      [
        "|---|---",
        "|---|"
      ],
      [
        "Ġmo",
        "st"
      ],
      [
        "fer",
        "ence"
      ],
      [
        "Ġan",
        "yone"
      ],
      [
        "Ġso",
        "ften"
      ],
      [
        "Ġsent",
        "ences"
      ],
      [
        "ĠCo",
        "mp"
      ],
      [
        "Ġgener",
        "al"
      ],
      [
        "na",
        "tural"
      ],
      [
        "ĠR",
        "o"
      ],
      [
        "Ġà¸£",
        "à¸ĸ"
      ],
      [
        "Ġchang",
        "ing"
      ],
      [
        "lic",
        "ation"
      ],
      [
        "lassifi",
        "ers"
      ],
      [
        "Ġsound",
        "s"
      ],
      [
        "Ġton",
        "es"
      ],
      [
        "the",
        "y"
      ],
      [
        "Ġpl",
        "ural"
      ],
      [
        "ĠThe",
        "re"
      ],
      [
        "Ġgramm",
        "ar"
      ],
      [
        "Qu",
        "es"
      ],
      [
        "ak",
        "es"
      ],
      [
        "Ġj",
        "ust"
      ],
      [
        "Ġes",
        "peci"
      ],
      [
        "Ġpe",
        "ople"
      ],
      [
        "Ġmu",
        "ch"
      ],
      [
        "Ġmon",
        "ks"
      ],
      [
        "Ġconsonant",
        "s"
      ],
      [
        "Ġtransl",
        "ating"
      ],
      [
        "ĠClassifi",
        "er"
      ],
      [
        "Ġphone",
        "mic"
      ],
      [
        "Ġroyal",
        "ty"
      ],
      [
        "mbigu",
        "ous"
      ],
      [
        "mult",
        "aneo"
      ],
      [
        "olog",
        "y"
      ],
      [
        "yll",
        "able"
      ],
      [
        "ĠEr",
        "a"
      ],
      [
        "Ġsing",
        "le"
      ],
      [
        "Ġdeter",
        "m"
      ],
      [
        "Ġdelic",
        "ious"
      ],
      [
        "Ġbet",
        "ween"
      ],
      [
        "Ġbec",
        "ause"
      ],
      [
        "à¸ģà¸©à¸ĵ",
        "à¸Ļà¸²à¸¡"
      ],
      [
        "Ġ256",
        "9"
      ],
      [
        "Ġbeauti",
        "ful"
      ],
      [
        "Ġespeci",
        "ally"
      ],
      [
        "multaneo",
        "usly"
      ],
      [
        "\"",
        "."
      ],
      [
        "\"",
        ";"
      ],
      [
        "'",
        "ll"
      ],
      [
        ")",
        "**"
      ],
      [
        ",",
        "\""
      ],
      [
        ".",
        "**"
      ],
      [
        "9",
        "0"
      ],
      [
        "A",
        "I"
      ],
      [
        "B",
        "u"
      ],
      [
        "C",
        "lassifiers"
      ],
      [
        "E",
        "at"
      ],
      [
        "L",
        "P"
      ],
      [
        "T",
        "he"
      ],
      [
        "T",
        "his"
      ],
      [
        "V",
        "O"
      ],
      [
        "a",
        "in"
      ],
      [
        "a",
        "tural"
      ],
      [
        "a",
        "ching"
      ],
      [
        "c",
        "ase"
      ],
      [
        "c",
        "uments"
      ],
      [
        "d",
        "d"
      ],
      [
        "d",
        "u"
      ],
      [
        "d",
        "in"
      ],
      [
        "d",
        "res"
      ],
      [
        "e",
        "g"
      ],
      [
        "e",
        "i"
      ],
      [
        "e",
        "ath"
      ],
      [
        "e",
        "at"
      ],
      [
        "e",
        "fore"
      ],
      [
        "f",
        "ection"
      ],
      [
        "g",
        "y"
      ],
      [
        "g",
        "or"
      ],
      [
        "g",
        "en"
      ],
      [
        "g",
        "ra"
      ],
      [
        "h",
        "an"
      ],
      [
        "h",
        "ist"
      ],
      [
        "h",
        "at"
      ],
      [
        "h",
        "ic"
      ],
      [
        "h",
        "ave"
      ],
      [
        "h",
        "igh"
      ],
      [
        "i",
        "ll"
      ],
      [
        "i",
        "ch"
      ],
      [
        "i",
        "ation"
      ],
      [
        "i",
        "mal"
      ],
      [
        "i",
        "ew"
      ],
      [
        "j",
        "a"
      ],
      [
        "j",
        "un"
      ],
      [
        "j",
        "ec"
      ],
      [
        "k",
        "en"
      ],
      [
        "k",
        "ay"
      ],
      [
        "l",
        "it"
      ],
      [
        "l",
        "der"
      ],
      [
        "m",
        "ation"
      ],
      [
        "m",
        "ue"
      ],
      [
        "m",
        "id"
      ],
      [
        "m",
        "ark"
      ],
      [
        "m",
        "ary"
      ],
      [
        "m",
        "orrow"
      ],
      [
        "n",
        "t"
      ],
      [
        "n",
        "ang"
      ],
      [
        "n",
        "ow"
      ],
      [
        "n",
        "eutral"
      ],
      [
        "o",
        "i"
      ],
      [
        "o",
        "se"
      ],
      [
        "o",
        "ve"
      ],
      [
        "o",
        "del"
      ],
      [
        "o",
        "gra"
      ],
      [
        "p",
        "er"
      ],
      [
        "p",
        "en"
      ],
      [
        "p",
        "us"
      ],
      [
        "p",
        "ack"
      ],
      [
        "p",
        "pe"
      ],
      [
        "p",
        "olite"
      ],
      [
        "r",
        "ac"
      ],
      [
        "r",
        "app"
      ],
      [
        "s",
        "w"
      ],
      [
        "s",
        "en"
      ],
      [
        "s",
        "ue"
      ],
      [
        "t",
        "a"
      ],
      [
        "t",
        "s"
      ],
      [
        "t",
        "un"
      ],
      [
        "u",
        "ction"
      ],
      [
        "u",
        "bject"
      ],
      [
        "v",
        "el"
      ],
      [
        "w",
        "n"
      ],
      [
        "w",
        "al"
      ],
      [
        "w",
        "at"
      ],
      [
        "y",
        "ounger"
      ],
      [
        "¼",
        "ī"
      ],
      [
        "ï",
        "¼ī"
      ],
      [
        "Ġ",
        "O"
      ],
      [
        "Ġ",
        "V"
      ],
      [
        "Ġ",
        "à¹Ħ"
      ],
      [
        "Ġ",
        "à¸Ńà¸£"
      ],
      [
        "Ġ",
        "à¸Ļà¸°"
      ],
      [
        "Ġ",
        "rom"
      ],
      [
        "Ġ",
        "à¹Ĩ"
      ],
      [
        "Ħ",
        "à¸¢"
      ],
      [
        "ĺ",
        "à¸Ń"
      ],
      [
        "à¸²",
        "à¹Ĩ"
      ],
      [
        "à¸²",
        "à¹Ħà¸«à¸£"
      ],
      [
        "à¸²à¸",
        "¥"
      ],
      [
        "à¸²à¸",
        "¨"
      ],
      [
        "à¸²à¸",
        "ª"
      ],
      [
        "à¸Ļ",
        "à¸Ħ"
      ],
      [
        "à¸Ļ",
[...]
